node {
  name: "global_step/Initializer/zeros/shape_as_tensor"
  op: "Const"
  attr {
    key: "_class"
    value {
      list {
        s: "loc:@global_step"
      }
    }
  }
  attr {
    key: "_output_shapes"
    value {
      list {
        shape {
          dim {
          }
        }
      }
    }
  }
  attr {
    key: "dtype"
    value {
      type: DT_INT32
    }
  }
  attr {
    key: "value"
    value {
      tensor {
        dtype: DT_INT32
        tensor_shape {
          dim {
          }
        }
      }
    }
  }
}
node {
  name: "global_step/Initializer/zeros/Const"
  op: "Const"
  attr {
    key: "_class"
    value {
      list {
        s: "loc:@global_step"
      }
    }
  }
  attr {
    key: "_output_shapes"
    value {
      list {
        shape {
        }
      }
    }
  }
  attr {
    key: "dtype"
    value {
      type: DT_INT64
    }
  }
  attr {
    key: "value"
    value {
      tensor {
        dtype: DT_INT64
        tensor_shape {
        }
        int64_val: 0
      }
    }
  }
}
node {
  name: "global_step/Initializer/zeros"
  op: "Fill"
  input: "global_step/Initializer/zeros/shape_as_tensor"
  input: "global_step/Initializer/zeros/Const"
  attr {
    key: "T"
    value {
      type: DT_INT64
    }
  }
  attr {
    key: "_class"
    value {
      list {
        s: "loc:@global_step"
      }
    }
  }
  attr {
    key: "_output_shapes"
    value {
      list {
        shape {
        }
      }
    }
  }
  attr {
    key: "index_type"
    value {
      type: DT_INT32
    }
  }
}
node {
  name: "global_step"
  op: "VariableV2"
  attr {
    key: "_class"
    value {
      list {
        s: "loc:@global_step"
      }
    }
  }
  attr {
    key: "_output_shapes"
    value {
      list {
        shape {
        }
      }
    }
  }
  attr {
    key: "container"
    value {
      s: ""
    }
  }
  attr {
    key: "dtype"
    value {
      type: DT_INT64
    }
  }
  attr {
    key: "shape"
    value {
      shape {
      }
    }
  }
  attr {
    key: "shared_name"
    value {
      s: ""
    }
  }
}
node {
  name: "global_step/Assign"
  op: "Assign"
  input: "global_step"
  input: "global_step/Initializer/zeros"
  attr {
    key: "T"
    value {
      type: DT_INT64
    }
  }
  attr {
    key: "_class"
    value {
      list {
        s: "loc:@global_step"
      }
    }
  }
  attr {
    key: "_output_shapes"
    value {
      list {
        shape {
        }
      }
    }
  }
  attr {
    key: "use_locking"
    value {
      b: true
    }
  }
  attr {
    key: "validate_shape"
    value {
      b: true
    }
  }
}
node {
  name: "global_step/read"
  op: "Identity"
  input: "global_step"
  attr {
    key: "T"
    value {
      type: DT_INT64
    }
  }
  attr {
    key: "_class"
    value {
      list {
        s: "loc:@global_step"
      }
    }
  }
  attr {
    key: "_output_shapes"
    value {
      list {
        shape {
        }
      }
    }
  }
}
node {
  name: "global_step/IsVariableInitialized"
  op: "IsVariableInitialized"
  input: "global_step"
  attr {
    key: "_class"
    value {
      list {
        s: "loc:@global_step"
      }
    }
  }
  attr {
    key: "_output_shapes"
    value {
      list {
        shape {
        }
      }
    }
  }
  attr {
    key: "dtype"
    value {
      type: DT_INT64
    }
  }
}
node {
  name: "global_step/cond/Switch"
  op: "Switch"
  input: "global_step/IsVariableInitialized"
  input: "global_step/IsVariableInitialized"
  attr {
    key: "T"
    value {
      type: DT_BOOL
    }
  }
  attr {
    key: "_output_shapes"
    value {
      list {
        shape {
        }
        shape {
        }
      }
    }
  }
}
node {
  name: "global_step/cond/switch_t"
  op: "Identity"
  input: "global_step/cond/Switch:1"
  attr {
    key: "T"
    value {
      type: DT_BOOL
    }
  }
  attr {
    key: "_output_shapes"
    value {
      list {
        shape {
        }
      }
    }
  }
}
node {
  name: "global_step/cond/switch_f"
  op: "Identity"
  input: "global_step/cond/Switch"
  attr {
    key: "T"
    value {
      type: DT_BOOL
    }
  }
  attr {
    key: "_output_shapes"
    value {
      list {
        shape {
        }
      }
    }
  }
}
node {
  name: "global_step/cond/pred_id"
  op: "Identity"
  input: "global_step/IsVariableInitialized"
  attr {
    key: "T"
    value {
      type: DT_BOOL
    }
  }
  attr {
    key: "_output_shapes"
    value {
      list {
        shape {
        }
      }
    }
  }
}
node {
  name: "global_step/cond/read"
  op: "Identity"
  input: "global_step/cond/read/Switch:1"
  attr {
    key: "T"
    value {
      type: DT_INT64
    }
  }
  attr {
    key: "_output_shapes"
    value {
      list {
        shape {
        }
      }
    }
  }
}
node {
  name: "global_step/cond/read/Switch"
  op: "RefSwitch"
  input: "global_step"
  input: "global_step/cond/pred_id"
  attr {
    key: "T"
    value {
      type: DT_INT64
    }
  }
  attr {
    key: "_class"
    value {
      list {
        s: "loc:@global_step"
      }
    }
  }
  attr {
    key: "_output_shapes"
    value {
      list {
        shape {
        }
        shape {
        }
      }
    }
  }
}
node {
  name: "global_step/cond/Switch_1"
  op: "Switch"
  input: "global_step/Initializer/zeros"
  input: "global_step/cond/pred_id"
  attr {
    key: "T"
    value {
      type: DT_INT64
    }
  }
  attr {
    key: "_class"
    value {
      list {
        s: "loc:@global_step"
      }
    }
  }
  attr {
    key: "_output_shapes"
    value {
      list {
        shape {
        }
        shape {
        }
      }
    }
  }
}
node {
  name: "global_step/cond/Merge"
  op: "Merge"
  input: "global_step/cond/Switch_1"
  input: "global_step/cond/read"
  attr {
    key: "N"
    value {
      i: 2
    }
  }
  attr {
    key: "T"
    value {
      type: DT_INT64
    }
  }
  attr {
    key: "_output_shapes"
    value {
      list {
        shape {
        }
        shape {
        }
      }
    }
  }
}
node {
  name: "global_step/add/y"
  op: "Const"
  attr {
    key: "_output_shapes"
    value {
      list {
        shape {
        }
      }
    }
  }
  attr {
    key: "dtype"
    value {
      type: DT_INT64
    }
  }
  attr {
    key: "value"
    value {
      tensor {
        dtype: DT_INT64
        tensor_shape {
        }
        int64_val: 0
      }
    }
  }
}
node {
  name: "global_step/add"
  op: "Add"
  input: "global_step/cond/Merge"
  input: "global_step/add/y"
  attr {
    key: "T"
    value {
      type: DT_INT64
    }
  }
  attr {
    key: "_output_shapes"
    value {
      list {
        shape {
        }
      }
    }
  }
}
node {
  name: "tensors/component_0"
  op: "Const"
  device: "/device:CPU:0"
  attr {
    key: "_output_shapes"
    value {
      list {
        shape {
          dim {
            size: 14318
          }
        }
      }
    }
  }
  attr {
    key: "dtype"
    value {
      type: DT_DOUBLE
    }
  }
  attr {
    key: "value"
    value {
      tensor {
        dtype: DT_DOUBLE
        tensor_shape {
          dim {
            size: 14318
          }
        }
        tensor_content: "78\305n\225\262\"@\307\225\202\207\314M.@\200j\000\222\220H\005@\236M`\235\327\3261@b\260\217\014A;\033@\357\030`\027,\352$@r2\215\000P\227 @\\\223\013!)\252&@\313\303\356\255\333\307!@9\244\213,\035\352$@k\013\021h\2275\"@\305L\245\026\177l\"@:\307\263\335\232<!@]/\217-\262\366\'@\006\010eh\334\226\362?\302{\021\344\325x\"@(\t\354\336H6.@#3!*\260\333\037@\216\317\236\252\306\0035@\270~\260B\200D0@\262@\315&F\020\025@n\227\325\362\005\246#@E:M\260I* @\201\274O<\004\307\024@\264R\214\034\267\302\357?\377\246\252\342# \361?\270\272s\223\336\2121@\027\313C\222\230\210\"@\021`\276\340\306\000\033@\235\205&Q{\026\342?\265\010K\220\237\244\031@\3117\035\371j\005\"@\372\025|\344 \206\"@\014\020\334\263tG @\\\004\204\3364C0@{\252\\\013\'&4@\r\251`\\\303\001%@\312$v\257\213u\022@\212\325\264\305\024\244\037@A^QB\227\351$@\r>\360\330\237\016\"@t\307\213\032\206\202&@\242\270\302?\225H$@H\354Ezr5\'@\026F,\302J\364\036@\201\347ln=\346\024@\253\371\236O\354\376\'@\256_\"q\236\320\214\277~\263\346*\212\203*@\241\300\267\300P\3736@\303\022`o\232u @dl\300\236\261:\323\277\216\233\313!j\241\277\277c\223\367\317\245F\"@\003/\370\t\247\200\032@\302X\327O\234C\'@\303\345\331.2&\365?\366QW\210X\252(@\017!\244*J\030\036@\211\333\236\251\242\202\"@\255\367\312\245\2711\n@\314}0\370M\210$@\004\276.\005\234\344(@\002En~\252\2320@\302\366+N\311\032\037@\014V%\\\213\374\037@\361\n\n\244@\202\016@#A(W\307_\036@\243t\235\321L\305\"@\0275\363?TI&@\262\2103OF\304!@\362.\356qlh%@\026\246\032\266`\000!@\323\247\277\330\'\350\033@$\345c\201\363\344 @y)\320\202\253s\'@\010\364}\311\252N\355\277|\342\335\352i\240\033@+\247\034\027\376\331\036@zM\017\nJy\'@\211?\253H\\\2765@\376\217\033\227\324k\"@\351\214\377m\334\213$@.\364\341\211\273\000\031@X\256\335\224\367F\"@.\332\353\366\274\261\031@\264k$\004\t@\031@\315&g\370\264P#@\2551\377 F\027\003@\315\274\371f\313\366\027@\035\240\3118%\356\037@\246/!r<\0134@\020\304\242\267\262\361\'@\320\315akt2\"@\331\341T\020\250\357\'@Z\347\274\037\347\030\263\277\323\265.\351\263\257\037@\332\202\376r\310\372\031@\032<\356\211\345\"\034@\254\251\367\027\353\356\010@\3442\345xB%\350?zd4q\371-\034@\371\333\032\350\014\"&@\035#\253\353\350,#@\323h0\0254\313!@9\027V\\\342!+@\231/\035\335\202\033\036@\370\371\357\301k\177\361?\376\326\312[\340l,@\307oe\344\207\265\037@\255d\263b9\017\"@qQD\276\377\t\"@\271N\247e9#,@\002v^\370\373\222%@\014QK\2249\363\022@\272\007\244\241\237\317\034@\262\240`a\351\347\037@\\\256\026\211\035\217\"@\217u\205\377\363\212\036@\376\331\352\315\00353@X\035\023\013w\367\"@W\207\234\361\217d\361?@P\374\205\017\000\037@i\'\023O\'\213\031@\250jH\375q\252\'@B2\371s\305\t\"@\347\360U\232\260c\n@k?Bb\365\202)@u\276\264\265y\204\032@\327\256\"\006.%/@\362U\004\225wm#@\217\377#Oi\0045@E\327\272\021lE\373\2771\355\274\t\225\3207@\313`\340G\242\217\"@q2\0219\364\025\030@\320\375N\363\213\033\263\277\342yg\274\306O!@\010\271 \225A\331\020@\212DW\330\302P$@Ry\"%\311\255,@\255\221\023\334\376\031*@\210\230\032\272<*\371?\371\353\314?%\366\"@\203n\2530\350\232\364?0 <Y\270\304\037@\2028V\374\273\330!@\356\350\214\343\030{\027@?\306D\231\371_\030@\034\026\005\"\rH\010@\210\347\327\234\244\037*@}\264\000\2719\270#@8\362\032\235\356\372\031@\360\342\353\325A\357#@\240Zk\222\231\'\341?B\352\331 Q\026\"@~E\310\212+68@\004\030\371i\232o,@\262\304\230.\243\274\n@\021\345\013ZH\035#@\356|\375\030\214^\'@\227w?\350\205=\376?\031\244db\210\366$@{G2P\276,\"@\006\202Q`9\222\021@\364\260\224\210\227\331\025@\260\312d\274\326\0052@\244\365}YV\325)@\030+\203\315\255\036\016@M\375\366T\322!5@\000\t\322\253R\221\224?\376\037/\275`\274*@\247\213\264W\226\t\"@K\034\334Jm\213(@\234\344?\213Bz\031@\340;U\261=P\025@]\3269\020\326\263!@m\\\321v\344\355\036@U\221\237\307\007e\030@\003\247\372r\277\232 @\212MB!\266=\037@\330b;\010\317\246\022@^ \246\034J?\036@z\375\024\212\036\375\032@l\023\233MO\266 @\367P\000\227\220e!@ub\244Q`(\"@s\024\275\337\252\375\032@#\216\005\035^H\024@*\227\235\260\212\252%@6x\333\\g\t\252\277\215fS\030\325\302!@\241\203\335\231\321W\033@\224\217\240\2421y\013@\321.\0215\362\271(@\375G\3314L\253\037@Pk\334\223n<\031@&N\325\332\207\316\026@\360\356\313\020\374\000\007@\250\216\321\021+I%@\223\340)\276\203q\"@\016\357\275\350\300\310%@\212\334\333Ff\372\'@`\021\267\233\304\354\035@-\344\3270\277^+@\264zu\370\345x\223?\250;\306J\tC\017@\272\010G!\255\303 @X,\321\233\202\331%@\332\227\205\331x^+@\006<\274)\335\324\030@|\337\256M\031\024\'@\333\320\3778\202y3@S\004\274\365/\376>@\345\250\355p\205q\361?7J\221\216\010 \000@\"\264g\224\003\330\"@\201j\356\256\324o\332?\263\022\353;\\o3@\010\231\277\235\237U%@\231\344\255\336\324^!@\216\327\223+\202N(@\\\271\363\321\235\264\005@\215\020\203\230\002\024\324?\250P;\316\375\314 @\345`\001\017\266\037\031@\004\333\303\211\250<\337?^\360\227\206IB!@\355#\006m\2610\006@\020r\244T>_)@\2400j\357:\264\'@*\2262\333\333\250\020@~-\330\333\240\205+@\371v\236\272\352S1@\211\262\207[\335L\033@\336\343\361YC\316%@\233\326)3\376\263\025@\260\306-t\2228\035@\204\313\341\225O;!@\202\'\215\316\202\343\372?\225=\021\335\026\261\037@\020\360\2100\2348\006@\364/?\363\026:\021@~6\332\300\th\031@\222(ef\'\312\361?B\273\250\265\347\264\343\277\304\333\326X\272l4@~+\273[\267\265#@\021\231\272wIJ\030@\304`$\322;q\022@!\347\225\234\'o\027@\323\310\271\335c\226\023@u\rL\321>\242$@>\205\361\rdQ\007@\361\266\303@\206M!@\342R\017}\351\341\"@\310\'s\022\233\210\031@\00361n\264\033#@\341\264Cp\032\234\036@wO\341\262Q\326#@ly\304l\362\257*@\222)\252t3\354\032@u\007-\373\340\306,@\242\343\271\252+\010\022@\375\362M\303\205\255!@i\207\246\211\312\")@\330P\203\314B\256\"@dW*\r\324\220\356?W\303\3524wE\'@\354\372|\311\0035\032@\311\330;i\002\321+@H!\306\364O;\010@~\252w\251\362L\n@O\322x\371\010\320+@\275\037\306\212kI\031@\204g\0050\254c\036@\327\027U\373~e#@\315(\325\277\235Z\025@\254\0261\034j\035#@3\320\347i\341\246\003@[\251\266\207\374w\"@\277\3760\261\025\022\031@\2577Z\243X\331,@~\361\216Qs\217 @\272\016\233\351\332\346\030@@\021\303\302\324\240\"@\3209\344\013\377\036(@m]-!f\311\267\277\235\273<!dT.@-\206\037Z3\311&@\205Iw+\331`#@\256\327J\241Y]\322?oO\312\203x\353\"@\225\3017\236\346\330\005@z\306m\035\344\361\030@i\306Q\242\355\204\022@.#\307f\337\010\030@+\021ME\317\240+@\331\361s\004\357\242\365?p\005\nxv\324\035@\323d\032\333\330A\017@\306\036jsMQ\030@\263_\005e\013\357 @YKd\223\272\264&@\t\203\370\341\234l$@j\321LA\310\247\024@\347\323\031\316\353\236%@\023\001\373\246\270\343*@\247\237\332Z\013C!@Qn\316\315\246\027 @f\237\3506\270\017\340?\232\325J\007<\232#@\013\246/\276Gi%@u\035\306~\370\304\344\277\300\224\303\037,d.@\240\214\332\305\200\265\024@\3709x\005&\234\'@\203\023{\257\364@\026@\255\324\273\221\334t\'@\200\021\302\020*\316\037@\261H\222n\353\265\n@&\323\262\377K\267\'@\027\342&\335uH\032@q#\261\031\352\324\025@\245}\367\267\231$\'@\343u\365\021\225\331-@\t\254V\005\356;$@&\341\211\363L\272\037@\025\273P\325\021\365\031@g\207\021%\316\016%@\252d\257`\343\206\032@B\377\353y\212\366 @(~J\235\031EA@\226\034^\255f\237+@\205\027Y?\361d\037@\013\371`L\014;\022@\002\362gpBD$@J$\016/A\007\026@\351f^\222\363_&@\266\255c\345bW\377?,\337\337\022\023\277\022@t\372\235\315z1#@\221\221\254\366\302\214\032@\361x\331\375\312u\376?\014\226\020\312\000\000\033@\230\037\'hmj\023@\351\374\270V\253I\010@\221O\300]\223g*@  F\245d\363%@\014\222\321\020t\231!@\336\276y77\352%@>\033.|\3012\013@\2422!\215\332b\261?\271\014\2440\224\034/@u\325d\017\262\320 @\350F\375\232Qr\032@\315\300\010\347A\336\024@\t\357\354\327\017\200\031@\352\334\3644N\217\020@\327)=p!\213(@\211\260\024\333:\252\r@{\2357\302`&(@vI\346\242k@1@L\341\203\317\275% @!8\323)4\271!@\367\267\001(\021\367#@0\343\243N\013!\272?\235|\037\263X\314\"@|\323\207=\323V\030@W>\376\344\205\032\350?\343\340\303\006\272\377\356?\'\351/.4k%@\033\004\026\363\205\232\002@Y\316\013\233\364/\025@\316\230\240\213(\004 @\370r%V\324\231\"@\254\260\273n\201\374\027@Y*&q\201\\\371?s\306\014a\360\236 @!\320\364m\034P/@\200\001\231\252oS\023@\326s\363\t\260\234(@\376\262%\362\367\373\035@<@\305\253\213\017,@\367\024\262S\251a!@\302$\200\216\233\373 @\211>\243\235h\201\'@\324e\207\261\262\345\031@9zZP\250\253\013@\307\327x\222o?#@z{pt\036\026\032@\017\365\244\024\300\337#@\211\365\200X\272\255%@\376\2416\375\033\200)@\377\360o\247\337e(@\372.\216\222\243\203\035@1|\334h\024\213\363?c\336\020\316\232^\032@\177\241&~\265\270&@o\2428uU\217!@\212\002\340L\n\257/@\275T\343\332\215\030\035@\247\205\220\310~w\037@5\366\350\267\366\356!@\370\'D\002>\226,@\0328\034m\207V)@\245\254\036\261\217P\033@\016\r\230{\331\235!@:\273\214\315T\217\'@\002\377z\326L\312\034@&\014\024\302\264\301&@Q\\~u\217\226 @\351\230\230\323\n6\027@\227=\321\301o+\021@\307a\005\377(p\033@\235\007\r\203M\333\363?#\314\262\374\000\273\036@\030\247)\0339}\025@\035\222Z(\231l @\025*\201\222\327\342\360\277\356\030\230\301\212\n\030@\345$\200\332)\001\034@O*u$\362t%@~\334DN\333\366\'@\260jZs\221c @\227c\344\362@\006%@(\306{\323\311\004\"@\331\304\275\212p\277\030@U\022]@\375\241*@\240\334\322D\201\244\"@\035\203P\tHX\036@\365\321o\200\025C\001\300+F?\025\225\001 @\325\022\237\371\244t%@\0023\363\2456G\376?\227pKX\331\224%@\376i\335\345\246Z\'@r\260\355\243\t\324)@\350\374\031\200;\334\"@&\355\265\274Lz\034@\322Xw\0037\3140@\277.\242q\321\323!@]\037\255\234\203\036)@\323\323c5?\337#@v.\374H`\237\025@\026\341Q#\'!\t@\340\353\020\244\367\016%@^\030\002\343\215\276\013@\251\036\013\377Y\035#@\337}I\273\265\246#@\345\332\253\352@f#@\004\242\350\000\017\276\020@\257\035\265WYN&@\374\002\264\214X\224\352\277$E\001.\nq$@\014h\330\336]\333$@\371E\372\316\336\022#@?\335\\\326\246\214\014@u\241f\006\371(#@\306\302\2728\304.\022@\347\247\003\034\354\242\024@0\272\376U.?(@\317\240{\270\337\237\343\277\311\210\023\261\353\177*@\275\\3\025\274\335!@z\"U\002\314\206\360\277\2154ee\003\306.@\'\276\034nna\'@\016\014<\321W\013\021@\302lSS\312\025 @\305\350\310\260\333X\020@\016\365-\006\036\316\032@\027\275\021\345$\'(@\3772\010A\201\342\005@\373^\316b\345$\370?\225\261\365\232\213`\376\277%b\320]\240\377\023@\226\177\360KDv\027@\036\311\0322t\321\024@\r\363P\241\333%&@\206]\220\004L\224\031@\205,f\337p\232$@\t\342\033\216\327\371)@O\360\250\214\332\026\031@\311\177\256\241\307@\001@\'\205\232\235\034\036&@!\377\222u\264\377 @\3103\232\"\341\3258@\201\311\210i\261\374\360?l5\322\357N\220\'@\215z\203\215\275\205!@\310\354\231\026\326\014\345?\272\'\216\212\237[!@B\330c\001\227\300%@\345r#/\342P\013@\231\236\260\304\003\376$@\2216t\004\207\371\030@\373\324t\347\320\006 @\177\304L.\010[\023@\022\252\355\211\"\0161@\026)F\366>\023\"@\233{,\243\257]\034@U\345d\252\254R\373\277\344\365No\300\331\034@\300lw\031B5!@\326}S\232\305\362\265\277te\326\246?P\021@\226\273\246r\240I!@)\"|URF\035@\243\205\357\360\343l\"@]\320E\272\324\357\031@1\2306Q\210\037!@~\372\225\357\225p/@\2517\233uc\r\'@\223\252\212\374<\236\371?\342\261\346\232\336\n\024@\0211\312\330u\336%@\t&\314\356\250\017+@\037(k_6\'\031@U\200Ra*\235%@\013,\374\360^\001&@\003\2601J\370\277\365?\370\304\017\325a{!@ t\032\2636\321!@\026A6\245\311F\024@\016`6\246\314\3451@D\362\005\225\007\227\026@\235\235\014\216\222\337$@B\234\330Z\227\354\"@\275D\"XHP!@K\262\224\200&\222#@Mj\216\312R\307\030@\013\337-V\365\324\037@{\024\256G\341d&@\026r\235-\275\2323@\350\357\214S\000H&@8\332\246\265\277\224\377?\260/\315\005\022r\026@\241\263\222w\212J\024@\037\202!\340M\351\026@\310\212\337\351\325\311\021@\311\226\032\336\002B\355?\035\273\270K\352#,@\027\364\336\030\002n(@\214\363(v\343\202\033@\301\345N<\251\265\030@)\346X\222\307\333 @\216\325q\362\336u\261?E\\Y\322\354\330\030@\324\253u\240VJ3@K\2124\226U{\024@\260\200\346\314\246\332\037@- ),5\252\030@\201M$8\370\361\t@e7T\010\273\223\'@\355\003\373u\310{\022@Rj\006#\274\326\t@\315\270\241\020\236\2520@\374\256B\251Ao%@\210^<?i\235\032@\242\023\363\300\210| @T\276\346\243,>\034@U\266h1\023\223\030@\004 \322\225&\256\014@\251p_b\207`0@\220\\H\321\024\271\031@7\340j\322\252\201\"@\252y!,I=\030@\350\361\203\014G\023!@\216(\'\271G\337&@\207\030\204\371\370\223\"@IH\203_\023\245\026@\351\206\277\211\225\305.@g\026\231g\302\336%@\212\314\214\031\t\006\033@\325\200{}1\2672@\317\027_\332\216n\363?-Ei\244\342\211\n@\233n\026\205\0269!@\327)\177\214\363\314$@!\326\004\031Mk\373\277[e\340_\210{/@\361\203\261\215\221\341,@xi\232\3427V$@\024\000\353\212|7%@\331n\326n(\025#@]\251\365\353? \034@\375\271\r\017\006\027\"@\375\001y\360\277E#@X\263=\226\030\333 @\265\013\027\0035\352\'@&B  *\250\004@C5\251\221+m$@\363\006#\354\227\334\355\277\361\240%\004\2650\006@g\2027]|;\021@\327\241\002v!\023\022@e\226w\264\365\240$@\245\336\2519\246\025 @\366\002\273\263\331\307%@\221}\261s\252\034!@\3573\345EQ\220\035@\262\260\034+ur#@\023H\252k\304z%@\300<\t\021\025]\'@\346,`\300\232\262\037@\234\245d9\t/%@\361Qm\332\006\247#@\230g<In\340 @\230&?\276\221\014\034@\305.\366\003\303\272-@\364z\346\233#)%@\307^\246(\302\204\031@\327-\031\377\362T\242?\317f\010\331\017\213\034@R\317\345z\231\344\035@v\035\235\377\306j\034@\215gL\230\233\375 @\301\253n\300\252\"\035@\262\342\005%\215\300\374?\235\256\354WAU\003@\332\354\304\274\371\255(@\377`\236\235%A&@\332\377\337\\\354\365\'@*D\227\242\"O,@\n\241A\022\017\321\"@\350\270\340-\014\250\333\277\010\303\004^\373B$@>\226\035fX\363!@\356Vf\257\026\305 @\261:\213A\324\225\'@\316\312\242\"\341\346\025@\203Pq+\243\242\343?\376\342\347\371\262y\"@\337\r\324\357\343\344E\277 \223\001\252\374\326\027@\247\213\223I\255\300 @\205g\370\005\252\305*@W\334,\034\020V\036@\013\177e)\202\355\352?\236w8\301\004##@%AP\037\225\303\002@\270\303\252j\027_\024@7X\373\345\332\302\035@\230\321\353\366)\334\367? \013\362/Y\347$@\277\337\3109:M\037@J;\177$6/\'@\274\340\231\3612\242\n@1\227\354\211\302g\013@+\265o\322Z\177\373?Z\026\254n~\016\031@\177\272\005;\223\352$@`\037\024\311\224\016#@,\265\244\304*7.@\n\373\023\350UC*@m\361\000\201\224\025,@\235?\003p\007u @\023\307\r\001\270\032%@\241\004G\0239K3@\255\211&\314\213P(@e\334\213j<\233\034@\334b\341\230#m-@\010.\342}M\235\t@\240\207\347`\216\352\365?\211\263\217\006\321\033!@\262}[\277\177|\014@V\263\224M5\201!@XVy\206\231+1@#\366l\312\323\375&@\363\003\020\244v\262\036@\355&\031\265\322\236.@\276G` \306?%@\264\311-\"\224\016 @\206q\273\300z\216%@\313%\0330\304\345\027@\027+(\024;5\r@\34405\225\207\025\000@\021\236\304x\261\214\"@\345\321l\242\277\025&@\351\035g\315\241\370\020@-@\'\371\033p\"@\202\350\334\374\245#\"@3\333fA`o\032@\374/|\351\222\356\376?\2008\347^b\316#@\3069\255\205\240\321\024@\236\323\311\2453:\031@\304\354\315\276\336\014\362?\272\211\367o\240T!@\235\326LB\022\247\026@\264\240\270b\315T\"@s/\024\326\344\362\014@?p\201C)\341 @:\324\240|\002_\025@\322\337l\357*\330\026@g\373%\034Y\233$@Yo\016\266\\7 @e\004L\3079P#@\022y\036\036\272)(@\242\361\002\364\024\2220@\\:(Y5+%@E\243\335\026\234\376#@\007(T\n\226\'\344?\021\257\360\320\2459\021@?}\333~\277m4@\374\223\317]\330\231%@B<\313Y\303S#@\016\032F\266\375\027\370?1\312;\240\317\2722@\363\274\363B<\\!@\360\350|\001\210j\033@\367\370@\317\277\265\365\277\324\251]\331&#\'@\362\232\202\365\262\331\034@$\026\177{\241\203\r@BT\206\026~\353+@\253\203Q\203H>$@g\250a*\303\377)@m\342\303p\236\177\263?.\334^w_\372\"@/E\003\302\230\"\r@eS\215\342E,\t@S\354\303\325\\\2300@{\302\211\035\312\266\006@\365\305\350\375\242\021\036@\'\364<\260\312\356,@ZO\371L\000Z\031@,\306m\362c\315\034@\237\\\215\313<\324%@\021\001\207P\245\220(@\351n\203L\305\265\363?\024\241\t\373\023&\'@\203\300-\314\000\275+@C\213]\274\316\277\367?\022\262\034\266g\201*@\323\014\266\314z\325\"@\235e\365\222\357\265)@\362L\334\350k\3221@G\277\227q<Y\037@\376\227\207&2\363\"@\343W:\214:\240\035@\345\266\'\217A\223\016@5\340=Q#\240&@\377\253\354\215\352\252 @\242\265`\261\237r\037@\360\272\261\262\023X\024@\262\004=\307\214+\037@M\324\344\277\306A\036@v1r\273<\310\035@`\016\244S\243T\032@\346\212d%l\r\024@\301gw\212M& @*\237q#]\376%@\211\033CB\214\246\361?\032\336\232\336?\222\374?P\"\333\\\251\313\027@:Uhgk\225!@\016x\306\342*\307\n@\014I!!\256&\036@\202\326\r%\244-$@\0213\366\203\214 \350?h2o\027\222n&@X`\261N\341\315\033@\002:\330\n\266\223\372?\207\242\020f\262\340\034@\212\035 \247\316\360\025@\212|\367\304\303\201\"@\207\276\247\261>\027\311\277\034\201p\354vz0@D\037\316\361A\323\"@6v\211\352\255\335\'@\201\251\260cm\337&@\214W\201\243\342P\001@qj\266\336\256\001!@2\373y\251\221I\022@^\206{<_\355 @K\244\263\032\262#\"@\363A\004Y\245\' @\374AvA\361\315$@\037K\376\253\267\037\035@\363m\267\340\351\232\034@\027\302\251\220\244\010!@\222\335\324Y\220\330%@@le\231\2609\'@(\025\326\213v$\r@\332_\321\010\221\2144@G\263\301\250\365=\362?\003E\352E\006\214\364??\210_\017\370\314\336?c0\230\"m\021$@\022dFp\n<(@\225\351\341\025\32290@8df\023\036y @\035\223\021\214\215\215\351?\327\274\354\317,\356%@\365U\221\210+\234\"@\331\353\364\273d@#@\330\235\213\0226p/@\343\234d\355\347\324!@b\005\215\323\357:1@\312{j/\201S)@%\362/\022rY\036@\327\000\2350\376\207\034@\330\037\223R\361A(@M\321H\206G\243\033@\244\242DZI\274\007@{Av\244\033\203&@\002\223\322n\037\032\037@\211\320\371\n\201\261\033@\304\250\243\227\334\222\032@\235\0172=\037m\304\277\267\225Y\342\323p\022@\274\024\313\353\220\374\007@\311n\352,H\353%@\235\331]\211\010\307\026@?\364\017\350m\244)@\253P\315zk\245\'@\261\343\357y&e\364?\315\316:\224\265\020\025@IH\273\tr+!@ <\252\377K\273 @c\361\027\212\246\031%@8\322w\211zx\"@q\375\266\205\271\311\"@o\352\243V\017-\034@I\2424\'q\236\003@U\034\275\320\022n @\304K\264\007\001\326 @\332\264\214\263m\023\032@2\313\304\313\330z\033@\343\235K\212\362\035\035@\226Q\350\231\267\022\014@l\033\305\300\332\333\355\277\266\037:N\033=#@C\360\256i\224\222&@\203\363N\252\"]*@e;\031\373\026b$@\256\322a\256\332l#@)\221\206Ku\304(@hw\272\206(\013\"@K\274n\327l3\030@\254\366\372\244$\357\030@\304|\365\310QD\"@{Q\014\247\004\272!@26:\010\266\311%@r`<\372\224\364\033@d% \005\323\265\020@\362\335\246r\354\001#@\017 **n2&@g\372Rc5\222\022@Y\253\253?\030\t\034@\2614g\262\274!\032@\373\327\207/\362~$@v\000\020\354\002\260\027@\321W\201;\377=\022@\365\343\020 ,\027\020@-&\323\364\033B\'@\201\300\271u\355\023 @\207\331O\357w\316,@\210{\260\265\214\206)@\220k\265\032!\034\"@=\350N\272q\210\037@xI\217\353N\363\376?\\\n\202\246\251l;@\316zT\243\'\006 @\207i\2451\326(+@\221\205\001\256\330\r(@\021/i;\217 \032@Is\262t\010\307#@\206=9\177\035j\033@\215D&\350H\217\'@\335\215\233\240\241\310\"@j\233\013\361\202W%@*\231\205>\244\024\332\277\366c\337\212\316\250\031@\361\224\335\345\205\350-@E\t(D(\t\036@n\305$z\036\252\007@\267t~\352U\231\037@C\034\0078f\365!@)9>\222F\340\343?<j+z\320\323.@\333Hy\260<\207\027@\3236\rp\2229\005@y\017\247\376\007\273\024@#G\344\002j\271\"@\212\312\2065\225\321\032@\305rv+~\357#@\312\252\313\323\000\344\037@\230\316\204\257z\252!@^c\372\322\231G\037@AQ\023\\0\305%@\016\002\322\316\316i\006@5U H\030\3130@\016w\242\342\007t(@\342\205!0\336\340$@\210\017.\025\002z$@\367\226\310\276\221\327 @\024\003\352\356\266\254$@,^\333\304\221\227\003\300\254\026\207\034#g#@nt\221\354Xq\033@Y\021\332\027u\220$@\361\"\317\322nQ!@(:\334X\232\205\033@7g\n\276\345\335\010@\310R\363n\217\014%@x\350?\224\375\263(@\357\352\217\017\376P\'@\302\257!\320J\373!@\270\215\321\375FF#@\034\204\3273&\373!@z\312\305s\021\234&@\273\325}DoX\340\277r)\370\267\025\276*@v\313\224*\337\203 @\304\264-\322\335\n\'@\0011\2413}C\"@\357\203\22377n#@\010\203\235(*{ @-6\340\005\247\326 @\344/o\006fR\024@t\2424\006cg\'@]\'\327\017\017s\323?v\341\305\312\201[\035@\240)P\230\353\275 @\341\205\354=\016-\030@\nA\021\002\'\007#@\277\301\315\2308\212.@\014[\263\225\227*%@E\013\010a\371m!@\0104n\360\331\364\034@\302mL\323\220\302\030@V\262;[B\301\030@\311\017<\216\204U\337\277\347\017m\312\214\344#@/\332\251\332\352\021$@\332\347\037\347wb\013@\201\246\334\177\217X#@\'cB\3553H1@R\005\234\330Ul\031@E\214\256=y\0276@\205\325\305^\t9\034@\221g\260\014\036o0@\367\305\274\306\3420\027@0\021tV9\r\"@\257A_z\373\246\"@\013I\027\257:\217#@\363\'\020\307\321\334\037@Y=\324tEl)@_\316\360\217\214\327\035@\376\320\355\241T\327$@?9\247\345IB$@\243\024\320\353\037\355\t@<vs\230\377\035\004@,\313\230\001\265h\347?B\367ux\271f\037@]\224\231\005\354p @\306C\347N\023 \036@V\033\311\t\006\\\037@lL/\001]\357\030@\252\355\027\315y\t\032@\336v>\217\223<)@\007A&\235q\3274@,\355y\243\373\214&@\0133\300G\365\226\"@e*P\315\335\023 @\371T\215\337\215\313\025@\231/\253\207\232\320\025@\326Wk\351P\344\003@s\343d\202\344\233 @N\022\224\240\224\232\035@\277\003\243\225\362\276 @\300h\342_\374\031&@\223\207\215\313\033J*@\315\177\335#zE$@}\'\003\223]1\'@\3250\021\251H{%@\336\026\2757\254p!@u\006\331\301\247\302\360?\366\3118\343\207 #@_\217$i\200\013!@\325W\231!<\355)@\315-\230\353yh\025@\325:7\216\324\240\032@\253b\205\266\367\206/@\207\236\362\272\016\"#@\236\326\271\336@\353\034@%\350\222\036DJ\'@\2447\346\271\341!\"@\247\350\272\203\347\004\356?\"\216Y\034\354\263!@\235\"\217\371\343\024!@\ta\2401\264r%@\351\242|\234\304\177$@\252\311&\325K\335\"@=\364\003u\317v\030@\275\001$\242\2611$@\332+8+\276I\027@\315\n\325e\342\341!@\034\033\211\351\245:*@W\3771\276y<!@\236a:\022\007\275\033@\2335>\264\013]\377?H\234\253ls\341\353?\246t\004\376](\001@z?6\025\036\226\034@\217\222\335 \350\364!@%\257a\225\361j\036@\263\245\266\360\226\035#@\244\027\030&\021A1@qe2\027\026\330\036@\360\317\223\3226\304\"@|\316\202\365$Y(@\240C{\035\272\330\026@\362-\244\252\246\213\034@\312S\363\250:(\027@\257\245p\322n\353$@\0213\240\203\323\237,@`\242[^\242\260\030@\313\311\306\256\255I @\263\206g\026\\\004\324?\177b\215HN\221$@X\204\375\377\201{\"@\363\212\242e\257\357\363?\231\316Vw\217\260-@\030\320\\\276-\331 @\256\326\313\347\303\242\"@\242u\032\212\267\305\014@\206\n\260\275\206\353#@wJ\2541\215\273,@\2167\236t\307\262!@Cd0\375M\275#@\200\306\032h\035\317&@O\313\271[,+\032@\301\001\251$\035g0@{\226\277\371\017o @\342\250?o\3507*@\346\367Bpx\347!@\233ye#\177t\026@\357\r\225\261gK2@.\3257\366\r\300%@Lq\023\275\245\223&@5&\304\\R\005%@F~X\312\215\3152@\010\342\021\034d\266\034@~\311Y\347\376\363\"@\303\357\200\224\323\244\022@\254\315\030I/\262.@\331\226C\203\373\271#@%\211\220\200\362&\"@y\207l\004\010J\"@9\303\327N\311n\005@X\006Q\316\202\264%@;ozO\231\222!@d\t\221*\217U#@\\\215$\365)\275\224\277\342i\"\001\335\204\020@9\272\226\005\035o\031@\213o\341\246*\024\020@GN\221\t\031\360\032@(\331\214\001I0\016@\346|\312\224\203e$@\023\267\201pB[\032@[3\260\220\344\022 @L\344$\302\366\316\"@\276\270\214O\214\021!@X\365$v\216\027&@\204\375\004;\361!\353?t\n\241l\222{\357?\003\017\336\347\220\201\017@\037a\234\350\210\006\025@M\211\r\336\243s#@u|w\325J\357\027@c!h<y\247\240\277\r\314I\251\375\306\"@f5Kl\270\360\016@\345\352\026m\3157\357\2772-\325\370\221N\030@\2565\236L\377g\031@\377$\272>\336\311&@\261\245\0057k\241&@\224\321!\240]&\027@\371\352\013j\275\373!@\327\333\226c\332$\031@o\306u\373\310\255#@\007\002%\204\225J\365?\251Q\352\300\251\202!@}\301\372\201\243\253\001@n\346\232F\266\372\037@t[\205AW\226\025@\275\001E\260\232\200.@\000_\014\020\305\357\"@)\277wa\214b&@B5\225\255Dw#@\330~\225\360B\302&@I\375_\357\252\221\030@\346\262\035\310\204\234\005@4Y\200\017\216@\030@\211:\2009\013G#@\303:~=\231\2321@\330\250\373\276\207\206\036@\032/1$\224\363\026@\310\317P \0177\"@\240\340\317\341;I#@\351\315\321x\\\341%@\212\200;7\n\260*@\216\325 \253\337;(@Wl\335\027\341Z\"@\220n\2717\025\374\037@\003\264\316t\206\250*@\255\222I\277\335/\364?\000\373*\361g\365\004@\331r\364\031\3146&@\3022E\237\340\251\346?\263\025\311\221\255\360-@\230\342\344]y\3307@\373\363#48\016&@\035]\257-_~\366\277\222\207y\3474\233#@\"&{`\324\t\n@p\317V\322H\361,@\225\210\016\206\334\022\016@\351\243\332Gq\027\"@0\311c.\362\360\334?\036\252\010\273Q)$@\024R\247\321\036\250*@p\t\2371\274\231%@\245\311\030a\202\353%@p\300+\245\016~\r@A,\027\001\200\313\027@\372\215\021\261\n\021\366?qG[<\214\376\031@\226]\356\233\024\313\032@k\351\263\376\364\327\021@\006\236Z\001\256\331&@\250\025\302De\016\027@C\033l)\241\355\311\277\260`i\200\325 \037@\002\250\276\000\266\014\371?|\223l\226G6\002@\356\333\275\232\013/%@\370\373\360\354%y!@/g\235\216S\214!@\215\013\244\027\367\317$@T\205\253\250f\255$@\254\366\222\301\257\343\320?2\024\301I\344\202%@\261\335=@\367\2473@\3773s\0260\234$@\30465\022\231\246(@<+v\3579\213#@\362x\302aU& @\001}\256\370~\035\034@P/Q\355n\236\022@ \"\nm\006N\375?\245WG\261\203\212\022@Zx\207\251g\2752@\336\300O\342\224\2533@\352$Iz\222f\035@\177p6\004d\207)@3\272I-\020\030(@H\327\320\366}Q#@k\241\260\000\260n\037@-/\320 \313\225&@\372\355-\335\013=$@R\326\305&_<\370?0\366\332C-\365$@\335\302\360\232\"\257\036@]\362&\\\033\364\'@;\032f\354t\251+@E\270a\305\275\216\023@\346\227\240\n\250\'\021@\361\336\220\307\205\201\025@\023v\320s\253*\320?\267\215\004\357\353\035!@0\3019\273f\354\036@\375\301<;K\266\323\277\t\255$\005XR%@\266\301\276\332\247\250\006@\243J/\222\277\'\027@\311j\200\363^\332-@\026\204\307\2761\356\002@\301v\213\033\0222(@\262F\216\213\242o\n@L\020\236\236\261\030\035@\342\236\337\336\322u%@\022\227\266\224\000\260\317?4V\206d\r\333 @\372\327\'\275\305* @\347u)M\001\265\"@\023\322;\2217\233\003@\263\204\316\316\026\204$@\205\366\214r\240\253\035@}\330p0Rj#@h\302\335\366\220L(@\325/4~\261\262\037@A\003\034\010\352C @l\242C\236,4%@#\030bP\001\2106@D\2324\352z,\036@\270\232+9\335\035!@/\230\215\010\245\337%@&\332\033\235o\370#@\364\201\027\217\350\235\"@98sp2\'\035@\306\246t47\000%@\230 \331\022\2500(@7\222i\014\361<\"@\340b\267b\216\370\032@i6Z\321\220H\032@a:J\261\345[&@S\236\222\326\214\326\025@\307\256\274\375\034\263\322\277\327D,\203\346\252\025@\365\n\212m\362P\020@S\223\253\033\231\346 @b\227\217Az\370\"@\357\302\302\210\376X#@\255\200\342\312P \033@^\213\275\347%\002\031@SiY1;\373)@\214\226\231X4\333\360?6J\3118g\260,@4Hp\014\311W#@\037\344\205\014\225\014 @_\274\313\267\321\344#@\311\037-J\340\007$@@\035\032\0141\253\000\300:\354\031\035\353\325\'@\363\0007\007\337\004.@\007\026\362\316\302\2030@S\355\262\343\257\354%@\244\357\003\312\205\316$@\262\026q\312t\323#@\272\315\334\302A\277 @\021c\331\2310\244\003@J\352U{\020\334\036@\014n1`E\271$@\372_\300(\307\246\030@\216~\013\035\001u%@\367\267\231D\234\212%@\360$\330nq\3001@\375\262\007\234\235s+@\206\327\242\303K\037$@\236\330\304{n\243!@\243\220\307\200\252!\'@\204\245)\036\361\005\027@L`\022\345\rk\360?LJ]\014\307\020\037@6\322@\226\177w\024@u\353\261\004\204.(@\214\253/\352\021\033\037@U\007\016\242\224\374&@\t\335\331\342\020\337\035@\324\252\363.2\355\"@;?Pdi\010\n@_2\341\331\026\354&@Vx<\322\205o$@.\370\331m\274\006)@^\374\247\372\031\3773@\257#P\365\022\260%@=I\231X\t\305\037@\307\214\t\224\301s\023@\317\026\255/T($@\203<\331\322E\006!@}\177\004w\000\266 @c\300\333\201\017\345\024@\025e*U\206\373\037@\267\374\023\236\310./@9h:1\247\010\355?\022\274\320E\013\253 @\0027\312{N\331!@\371\345O\370\305w\033@\205\350RT\344k\026@\013\026\320\tvK#@\241\230\316\344!\317#@\241\002qh\3336(@\020)\207\310I\224#@8\035\207\025\374\363\026@\354{y\246<3(@\244\r4]W\325+@a\334k\023\267<\031@\365\370\'2\037\262\355?\'\017\2124\2214\037@\300\351\251Je\306\362?\026\2057M\2322\032@\326\241\242\003\365T&@/\360\242\320.\342&@\354f\203\2422\305\037@I\013\026\325\302\323\027@\273\244\256\330\006C#@LP\242\251\307\2641@\340\036N\327H\t#@h,*z\221\025\362\277\244\254:\006\277\334\020@\373\224G]\211)\022@\256\224\027\371\362I\030@\360$p\213\374F#@|^\022\343\014\262&@nl4\210(\031$@\302\350\311g?\225$@\265h\246 \344\367$@\255\2165\206\255e(@\332B\256\331l\242#@~\266W\344\254\330\"@\025\303\257:m\013\025@\010\007H\"\236$\037@\315\274\267J\371\262\t@\361\235V\331\220\324&@5\313+\370\351\337\356?-]T\232\263\017\337\277Aj\217\356Rb-@{=\033\226_z\006@[\002\266\244\037J\025@\000)\204\352\363\324\037@\245\276\345\027I^\037@\347\0102eTC\"@v\236\035\025\244$+@A\253\250\316^w#@\211\256H\242P\234#@oVz\366\'f @\344\341\356\300\301o\030@\357#=`\254\025#@\326\\6\206uG\023@\272\374\240\221|})@\021:\205\350R\2726@\353\350*p\301,\020@C:A=\253F\025@\31436A\302\202!@\370N/\245\354\023 @Tmok\226\026\"@\357\354\273\272\024\211!@f\372\004\324\304l*@\351\301=\314\347\235\036@\312\277\221\236\364y#@\326\341\023\2539\364\021@\267\234KqUM\031@\330\037Q6\037\2511@\310\177`\022W\177/@T\001\265 \255\224\220?\277Bo\274\376 \037@\230C*CW9\034@\360\241\036\204{\317\027@\003R\206\235nV\027@\232W\025\344\336\020 @SY\n\004\336\007!@\324?`\234\372\353\365?W\000D\333\340H!@\207\306\205\226\204\372\340\277u\366\276\206\032\354\372?1?t\227}\350\000@/\306<\002\352O\034@\024+O\222A\t#@\265\354 \341A\214\365?H?^k\226\363\030@\261Pk\232w\362%@\251\267\030\231\006/ @\0043Z\322G\\\353?\223\313\271\363H>%@\260rh\221\355\214\037@\036\210\006\013\"\252\027@\227D\315\302dQ*@s\231?K\374\366\351\277l\246\357\363\347\272\'@,\002\243\230\252\221\"@\313fqs\350>\027@a\275\264U\007X\361\277\025\023R\271\264\336!@V\363cf{1\351?}\031,\237\\V\034@C=,\275\376\010\006@\224\300\244\000jA$@+\006\274\212\224\331\034@\311\324d\223\352]\031@\237\300\355i\204\312!@\013EWu\230\005%@4\304\014\350\340\2600@\'U\335N\033\340\"@\207h\305N\260\223\331\277\036d\243\275\013\305\356\277\366\341\254\312\266v$@\360\007\253\315\331\354\373?\305\360UN\"&\"@\333\264OPUr!@\251Pz2A\242#@\021\264gn<z\351?\274AQ,\371\350&@V\237\'u4\030%@\367\306s*\327\305%@g\347\372_*\r$@\242MHJ\376L!@(VWO\3675\'@\244G[\256\341\222\002@i~\251]\033/$@\303\233\276i\275\305\030@\257\353\216\372(;\032@\002c}\003\223{+@\252\325\'\036\357\354\030@\362\201\025\216\275x%@`N\\\320s:\027@\t\374\237\313\355\265\032@(\350\335\365%\301&@\351O\035\326\024:#@BR\302N\334\202\034@\263Dg\231E\222%@\323\033j\353\022M%@]UQ\027\204%*@\nXa\3512\243*@\241$\243Q!\261\030@1\205\t\316\331\235\003@\215i}\374k$\025@!\021>\207>\313\035@\312\206V\243.\360!@\266\305~\024J\336\366?\220\316\3109\024`-@Q\331\253\355\370\177\354?z*\313\003\235\254\r@\235\201a^\037\234\t@s\207\250\035Y\304\357\277\334r`\377\226\364%@2B\003\247\372r\036@B\213\213\364\271?#@s\310\221\304NQ\022@\313\350\274\320\240\024\345?\373I\255\336~$1@7;k\032\210\367\'@a\335\333\241\037k\035@\216V\030\317^\367\021@\036\2367\253\304\371\"@\275D_\273`e!@\325b%#\275\235\037@\316\330\215\372\310\260\033@0:\322y\212\347\027@\331\221d\002\360\263\"@\262\024\357\036\245t\342?\032\002x\362\206\030\"@h\2334p\264\331\023@<\331D\233 \360\014@\376C\353\302\276\372\030@C\0248~M\223\023@\270\257p\203\273S @M\366\210\376\364\266\010@\022D\243\\\226\2151@\301\260\231\317\373\345\'@\251\211\333\364\251\243&@\251`W\n\266v\t@Q\234i\343\004\0340@\301L/\277@5!@\3055\t\241-\366\364?\275\207\026\234k3#@I\336\311?\344#\030@&(H\343\205\037\036@n\306\262^\341T\373?\027\261x\177\366N*@\225}\374J\2146\005@B\304YSQ\001\037@\3211\265\337\271_ @\331I\250\3316p\034@\241\023c\025F\3451@\270\334c`Rm\003@\023\262\356}|\214#@A?\370\365\350@\025@\262U\325\r\014\205\'@F\367\244\372k\301\031@Z\261\030\245\346\211\035@\327s\203\265\3629\365\277{MQ&\034\313$@s|z\215\331\343!@\340b\3767\032\003\354\277\317\307\025\024\217l#@[t\272E\3034\021@\342\260\241\214\3228\014@\0175\317\346xB\031@|\3319w\002\316\033@Z\207\313sB\317\035@s\302\235nMn @:\276\375\206wY\"@\200\370=\r\277+\023@\214\2307Y3j\017@\331\243\344\223\035\314\'@A-\243\344\027B%@G\260/\341\351x0@U\251\362\240M\236%@N\361U~[\030.@w=\323v\014R\371?\240\364K\345i\034%@\214\356\007\331\005\275\'@\311\300\343\326\002\351\025@\354\014m\257\356\212\026@\002b\177\312\022\034\005@R\017\001\"%\235\036@\320\304\331L<B\034@.6\272>\004\037\033@T\273\262M\"\223\025@\314\370\032)+\247\002@\274\344\032\307\221\324\364?\221\265rn\224\021#@]\030\356\376\2463\034@=\363\017\256\302\374\026@\335\244\203\2448y\"@\330\362\244.\024\371!@\017\253\313k\035\365$@_\261[\013\200\361\020@\342\340B\206\244(\032@{\2435\212\325]7@\316\270\340t\341]#@\357\273\233\007\255\345 @\212\342\270\000\362#&@\335(\r\220\303\007+@\345\004\313\343\371\377 @\260~d!\327S\026@4E\372\231\354\024\022@y\354\241\\\236_!@JA\226\211K\353$@\315l\355\003\344/\026@\205\240\274\362\315\260(@ 4\372R\361\377\031@\200\233\327nA\372\354\277%3\346\307\302\214(@\007\203\354n\3768\035@\253\nYR\370&\034@\234o\002\333\332\245\266?.w\240-k\375\026@\344\210\311\334\373\321 @\367\363\236\261\3142\033@\374\334z\224\344\347\033@\025g5\362\263$\037@\3655\337I\212\322\024@\337B\204\243\327w\027@Fy\021f\r\200\360?~\346XP\253\233\031@\027v\244<\353\247%@\241.\020\0149\343,@~\332\241\224\"\317\332\277\370\212\217\313\217l$@\0032\246&\342\t/@i\003\'\020\263i\034@\225\014TTj3\r@#\306\354\336\352\212\034@\224:\250\224<\302\035@\035\274\363\347\202^\031@\007\207j\214\316\306\022@&\256h\025+\240\033@/\235\023\321h\300\n@\206r\242]\205d1@Jh&s\207/#@\233\345\364\355\013\375$@p\327R\r\351\252\035@Y\312\2226\336\272\024@K?~\302\033y @ys\331dd\311\027@\262X7\234\001\357#@di\022\202vQ&@\324\254\025h\325\211\367?@1\323rw\3263@\327p\252\030[\214*@bYz~b\306&@\267\306\254\206\340v#@\274\334\210p\221\350!@>\360\342\021\235T!@\306\220\326\367e\203%@\316\366b\324\'8!@\003\340\247\303m\2701@\267W\315\020\032]%@\365\200\206\362\226\001\034@\333\235\336Z`\226\037@a\376\206`\207\2511@\035SBsG/#@\342\227%\372\257\235\371?\3313\244\272\033\304\373?!\037\311\354\371\227#@\235\267\201\240{M#@\314\310\363\365\211\201\032@!z\274\n\325\025\026@\364\346h<\256\265\'@\016|\024\307\344\265+@5\340=Q#D2@G\211\341\023\200\355\036@\254yV\036\031u\372?Y\331\200\000\000-\001@`\241b\336\333\007(@,\344\337\241\007\006,@\241\307 ^t!*@\000o\276g\335J\031@\n\270\255NJ\302%@\244[\n\243\264F\036@\225~\343\347\226\210)@q\322n\323#C1@\205\020S\314\210\335\364?\002\327\243\335\331\350\033@^\344f\004\220P\031@\277\225\032\021\364\020#@\301:: \234\226\035@\035Z\340\002;z)@\330d\215z\210\376%@\025\372\337\230\005}\010@l}=\321\010\333\032@A\301\336\'\273L4@U\323\334\2476\002:@\007\233:\217\212^4@\332\017\2754a\265\361?\321\261\203J\\\205\'@\227Wl\233\373\2441@\020\311\322\177\275F#@d\342\2112\261\325\037@I\235_\030\331\253%@\326,#7\273\352$@G.j\275\000\345\034@\265\223+6\222K @Q>(\033\033\311!@h\330FA\222\033\n@\200\t\303\035\373\031$@\223\327sg`;$@\234\220\020\304\375\332/@\243\210\2548L\323!@\n\257\3210\204/$@D \217\307\251o\033@\177\215\240\010\024O\"@\013\177tT\257\027\374?=\"l\231\2105 @\303\343\r\366G\3772@\332\205\000\217\221.\037@\025o\205,\34223@\030\363\032\213\013\263\034@\314;\000B!K\316?c-1\333\275\320!@\266\252\246\235\372\r\376\277\252\326>\364\017.$@[\217\210J\237\315*@HE\316\210\363B$@\377\232\014\304;=\035@P)#\354\343\014-@{\377\005\323G\234\036@\014\352\247t\272\222!@\320\026=\333\2263\"@#\247?\223\256\t#@\002\320|\\\210f\342\277\343Y\2747\n\305\032@e\\\265\216Qu @\223-t I\027\000@\267\230-\306\261g\017@l\353\031U\225\260\r@\367\371\3672\264\354.@\371\002\260\212\002\316!@\276,\263)\323I$@\342\226n\226\273,\'@\271\207)6\213\200\016@b\017/\200\327\314!@x\351uw\334\277\035@\243\003\033\242\315V!@D\305\325TX\375,@/\342f\261G,\034@\320K\215\034^:\320?\204\336d\031\267\210\350?\263NKb\377\305+@)\334(;\310\376\007@xI>\244O\277\r@\206!\351\010\0353 @\221\354\225\242*,\037@\224c\236\324\030&\327?\030\255\212\ri`\'@M\237>~F\304\345\277\355\035\r^\366\013 @+\355\375\333\237=1@|\257\347\214\244\200.@\273\366`\2555\221%@\323rw\010\251\214(@\262\226V\321\214\022\024@\240\232SH\200\255 @\265\362\254S\316\001\037@\002\235\363\232\361u!@\203\350 \032\243\264)@\335o\274T\317\207\"@\013\305F\356#\226*@\377\316\264\314;\241\350?\\{\203U\023\206!@\373)\024=~\246 @l\250bt\212\351$@Y^\003lQ\004%@\321o{\\\375\313\003@\205\245u\2546I\010@\362-\324\343\274\240\025@.T\262\'w_\037@\244\035b|\313\324\031@\302C\014\314\356\177\351?\n\253\251\023m\006+@\274\346/\3262\027\354?\244\366\222.L\342\013@\203\210AQ\272\003\346\277\023\204D=\361\026%@\350h\227g\014q5@&\005v2\3010\"@\325~86\245\000!@\217\332\314:F\304$@\264a\262\2207#\000@\361`5\335\205\354\037@\274\334q\324\033\327$@\000\374\007\034\377\331\366?\321W\370I\241y @X\264\250k\307\006\354?\274xI\3402\310\"@vF\320\242\2737\345??\327\022\200\354t#@\232DZ\266\030\236\022@\267j\004\006<@!@\231\200\314\277w\356#@1\300;\202\346\032\"@\334O\252\243\001y\n@\364\03487\013\235 @\251c\356\212{\357\"@\330\246\251L\316\300&@\027\030G\037\322a!@A\351_ u\034\341\277)\017\3425uP @E\367\232\210\370\177\036@\363\035s\323\243a\030@4nA!\310\366$@\3641\316\310\350\314\360?\356\220\324\325,\022\013@\\\001\205z\3724)@\344\336\277#q\335\025@8\0174Z\237\330 @\2548h\276i\333\034@&\204\203\307\373f\"@\n\025\332A>-#@\301\241\345\260cZ\026@\377\316m\367\257\n\"@;\317\320&$\235,@zU%\231\356^.@\342\014\216*t\334#@7\327Y\302\024\336$@\322i\323\224A&\027@\270\325\203\264\2141(@n\353%\3103\324\000@\267\253\200\020\003\256%@#P7/\322\276$@\267JM\016\341\334$@\333\273i\247\244\376\360?\210\335\2067\274\007 @\r\177\307\234\331\301\365?\n@\212\327H\014$@A\006\360\353\307\014#@;z\323_u\217+@q\353f-\242_\037@-Ia\210\343\373\031@\344\203\340\351|\321+@\260>y\263a\250.?!\350\005+\220\321\317\277<\"\002\265\350,\030@ml\360j+\031\344?\272\347\337\177B\207\034@\203R\247H-\342\037@\346\272\017\221\261H\036@!|q\247I\020\333?\354\243b\202kY\033@\232-\223\300j\353$@\315\346\377\302\343\370#@9\265\233/\342\002\"@9\031\207\300\262\304+@@\264\301O=\006$@\246\033G\375\014\253#@c\273\307\0164\243\354?\260l\213\327ae\003@\r\251\303\206~\264$@\357&\2325\350\037\"@#\321\202R\337\342\353\2777\263+g\316.6@\353\305\222j\206\333,@\r\233\226\222\304\2153@\241$\0135\226\017 @\035\364\327\361\200\226\371?\336\254\003\030}*\022@K\361\036\213` \037@O\0031\311\373\302\024@s\022\3474M\"\033@\273\220~c\036\331\035@\210TIK\202=+@\265\347\241\322bz\034@\025}\342Y\262]\372?rN\003>\363, @\305mA\252\271\203 @5\036\021\370h\360\036@\337\026\260\r\252#,@\006G}\035.\271#@h\230\276\375\327\276\236?b\361E\302\221\250\035@\272-;\013\025\310\355\277N\252{9\3637#@!\2647[\355\037\334?.\336v>\217\0330@\340\016I7\006\220\033@\217\324\255d\350\236-@\265\030N/\267\025\032@\345\2015\277{&\030@\303av\nJ\325\361?\207\360\324\310S\003)@\225]\373\305\026\275\036@\251K\274\277\036H\"@\227=\355\026\237\207\033@d\254\352pj\027!@?\023\236&\354\014\034@\376\300,\037\017$&@h\276\314u\357=\"@o\273\252\225\004\t!@J\312\316\274\313|#@|\305_\002\323\313\003@\346.\323@=s(@\3439\201\007\013!\017@\301\370\016#)  @\000\016N\002\243\234)@\265\341\'C\222\261 @\323r\3322d\017(@\344\311$\331\331t%@Y\003\376j\272\014#@\004\314o\335<\301\373?M\352\013\356\365\036\"@\037ZTYNW)@-#X\311\205\250\020@\301\\\007\336\373\341\334?\312\377+\305jP\357?\215#\030\377%\322&@\263^\244\001\320\253 @\243\321R\266\2362\034@\374\030n\036Y\373\027@\2641N\372}8\033@\017C\307\350bo @q\320V\014\364\274\371?l(\345P\347+\024@^\377\246^T\266\367?\304j\342\323R\251%@4\370&F\311\021\025@\341\315\236\364S\246&@\371\361K\210\257\302\032@J\377\341\232z\036\362?\'x\267p(K*@\214\021Bm?\031#@\255\356`\335\333O&@\2675\301\356v\344#@M\306p\366\2009\014@cN\271\212\021\236\354\277v\244\256@\352\245!@m\256\021\366*\270\340\277*F\005j\013\037\037@jW\327W\r\302%@v\300\316}\324\310\"@\371\374\002\n\215\371\366?\022\265\033\032\242\236!@K\235\'nz\371\025@\3571\201\360\3333&@\355\0072\276\014Y\031@\005\013q\366\030\232(@\215\310\361\357\245\005\"@\226\235/\nC#\325?u\344iuI7 @\303Dt\351\016)\034@\365\344\372t\305\320!@\343\241\326\321\304}\021@\'Z\221O\312\345!@\321\t\374<\241N\003@nwX\2464\366\020@\264)Yy\302\312#@\020e\010\375\325:!@q\313\223\340\027[\312\277V\033s\tM\343\374?\026y\367\237\263!\033@\226f-\344\225\224(@`A\360\261!\350!@\353\203\307\337?\253\356\277\276!\"o\230\004&@%\315\250\3048\225\"@\236ZW\256\262\024\024@\247@\262\365\026t\"@J\316\313Y\206#!@\312\036\035.\244=4@M\211\240Au\341\036@+\200\357W}\255-@\251\226V>)\255\370\277sU\030\334\210\203!@\272C\331G\346B#@\220\207\276\273\225c%@\225\377\264Ds\220\037@m\203\267`\331y\035@\n\277\033\245\'?\030@\355h\356\261\214\200\031@;\3571\036\306\326\033@\004q\315\006a\303#@\000\263H\001\014\350 @\376\354\1774\'\236#@qe\3123\241j\036@\343\323\255\350 \337&@u\035\376(W5\033@\021.\233;%\000\034@\020\337p\274\216.*@\026\244\370|\2758)@n\000O\275\3425\032@n\254k\204\343\221\302\277\360\201\302E\223>&@|kX:\274\027%@\303\221\223\313w\241\027@\226\341\325\370\240}\034@\267\217\242\357\352\010)@\035\275G!\2742!@m\t!i5\331\335?*\314\326U\33400@\034\323nO\353\221)@g\226\026\213e&\034@\204\213\354\265f\204$@\366h\031\305L$!@+\214\353\347f\027#@\021k\204\215\321U\026@\210\\\231\205\260\367&@\342\205V\"\256$ @\037&\225\264\330\211\377?\263\201\2371\306\355\026@&\217\334\327\327\352#@B\005,^\321\3050@\223\352c\207\366\352\025@(h0\231lz)@\236\002\000\312V@\037@\321)\327\372sJ @\370\277\310p\34126@\344N\230\031\376\327\025@\340ph\217\354`\"@\340R\245\230I1$@\360\202\353\376o\356(@\356NX\221\272s @\'6\342sn\305 @\305\376\037\030!\273\361?mD\305r*\320!@\212\345E\017D\001\"@LDK`k\003.@<\275R\226!l)@%z\266\232\267\250&@/-\362\004%\3157@5\026\255\331S\021\017@q\275\371O/\273#@(\331\250Vxz\357?\316s\002\242y_$@B,\223\310\333\261\005@\323\302#\371c\223)@\271+|\374,A @`_\004\360\303L @u,\320\235I|\"@\tjV\210\327e\016@o\366o\255\342\216\035@\270L\270\035;\234\'@o\317\034\'\277\210\037@\231\340il\216\021-@\223=\337\242\325\362 @&\227\350\364\010\352\365?\232\324\201\300\213\337#@\200\014>I\221{&@\010\250\037\275\251&\024@.\350\314\\1f\037@\n\312\220\n3\226\007@\244\006.\352\356\277)@\016\302\232\322\023q%@6|T\301}\004\331?\341\333\233\257\367\354\036@\001W\211\344\361%)@y\"\365\217\237\033\"@\335\270/\341|\334\305?k~\217\t\027L#@\006\000\262\003\363\277\031@U}\036\013 \016\022@\377\3772\361\244-\022@,\203:J\375}\035@\250\006\365\210,\323$@\245\213\250\344\367\215\032@\333\220w\365\307\257+@8\000\t-e6\"@jz\007z\323N!@\321T\\\020\"\327!@/\300*V\216\016\014@[\245\2641\210\241\004@C\027\014b+\245 @u_\323%\021\325\026@\220!\300\034O\211 @e\223\357^]j @c\017\314U\034\202\034@\266\324o\226\372G\"@\300\307\344\375M\232\036@\356\233\230\201\014\317(@Y\274?{\201\0352@\353w\226]\206\372\035@\312G{Q\365\030\035@\n\251\304=\342z\036@\262!\007>iU\256\277\034:\376\212\203\234#@C\214\327\274\252G(@\273\337\277~*M#@>\'{S\252\301+@\351\000e\254f\000\034@\372:\236\006tu\277\277\377\322?\024\0161\032@I\247\246\013N\360\320?W&\231(\204\340&@W\266I$U6\035@)\356@\351\200\200#@\314\354\310\230\210)\"@\252V\037Bn\304\022@\366N\232@\360^,@\262\237\2036R\365\002@\260\200tw\276\223\026@g\331Q\244\024\2402@\357\373t\222fY\"@2\332\323\243\343\035-@i\273\225gV\375+@x\036\322+B\244\035@{ h\273\370\211+@\340\312S\002\324#\037@\342\365\233\264i\n!@\2546 \276#\327-@\263\202\363j\377\027\033@\372\010\035\360\320|*@.\366\371P\353Y\024@!u;\373\312t @\37440\352A\3500@\260}\357\331\264\020 @\036\302\266M\n^\'@\003p\036\024\265e4@\346\272\216\020\234\301\002@S\201j\356\256\362&@\217#@\307\363\333\"@\253\332f\021\'  @\260\377:7m\336*@5\212\211&\200\241\030@\346\361\213}\217\301-@\2175\254t:\312\356?_k\000\200\255\324*@\211\000\257\3509.%@(5\334\311\245k#@J\362\226\212\021N%@P\254\336\327\004\371\032@\3575F\3437\006%@\016\267/\337{\r\013@\007$\032\n\303\263\343?\214\"s~\355N!@\026I\n\030\234P\032@\252o\335\360b?\036@Y\274\273B\335?\352\277\237}\274\302H\226%@r\370t\332\362\306\035@\217\211\205;\3068#@\372<\2371.N#@|\317>\022\323\006\024@^\206Z.v,\032@?C\303Xb\302\"@\341\267\361\214Ua\035@b\370\275\212\342\024\033@A\257BA^\357!@\014\306\346\265\242=\367?\376\375\030)J\"&@\320\270p $\377,@\036\321N\027s?$@\242\271\251\334\237\350$@\326\304\220\t\351\325!@\177G\323\'Y\360#@\'T\240\261W\245\000\300-A<\316\021\202\"@A\225\036vt\222\033@f5*^\317\221\322?z\370eB)\204\005@\212Y\234\"\241\226\033@+\177ct\345\330(@\026\375\333D\261\215%@N\221\350\n[\342,@\rcB4\t\022!@\020\237\2271\325\021\023@5\r\"\003\215\332\265\277>\202\241b*\352\323?\351\272F\204\254\312\037@\003\203\023\355\004\300!@qpL\303\256\303)@\026\231\365l\232\006!@\205\030k\\X1\034@\315\225\004R\251\332\033@@\332\372G\261E!@\031`\177\017\347V\030@\346\376\217\270l\231(@\031\321\260\367f\020%@\241\231\212\001\320\262#@\313n\221t\000\"\032@\210\372/\240\257\n\314?\226\341h\\r\203$@\326\350?\345D\025\026@\233\265oIi\213%@\004\007\005\274\004\333\362?\334\307\033\252s\362 @\315\340H\320\372\264\002@\222\023\375\0145!2@\327v\311\356\270\353$@\204 \351\316qh @\324\n\025\024\355M-@R\253;X\367\016\361?\326\325\306\323P\245\340?\257\346\027]\222`\036@S\241\267\001j\245\361?o\304\031\027\234\212\034@\273,\303\013dN&@6\274\213\2758\370\"@\227\022\325\235\037\3567@\332\374\023\352V\022\035@\2040\306\246\346E\036@\360+\227\014Nt\032@\231\250\212\033JB\"@wt\257\325\026\351*@\236@\3717?\274$@\243\r\227\207\0220*@1\016\252\344\316\354)@\321x\023]\306\316\372?\236\002\005\203\020)1@\211C\352\001\351N\361\277TE\322\035\255\335 @\007\0313O\317e*@^\301p\215S\345$@\266nFwW\355!@\212\354\317\272P\341\034@\204\372\320\344\3461\"@?\314\257\375\234\350\"@#\363\344t;\326\t@*\321\236:r\036\034@\332\347\316\237x\267!@\262\343\320lh\034\'@\221\321\217\363\357\227!@#\326O\360.\266\020@\036\001\312I\242C\274?$\215\324\3628+\033@\024\211\036\005CV\375?\014\346Y\220\000\374\023@\310\350Fyb\217\036@\033\332\337]W\271/@L\037\376\275\273E\363?\345I\244\375\247\342\036@\345\245\000\360\006O!@dC*\321\0019\026@\353\241\3079\373\026%@\351\336\232\246\225m(@\351\350-(P\331\"@)\247Wy\353\010\036@\271\210\224\013:*/@sp2o\252\321\007@\222\017\344\032K\361 @\2463\261r\310\345\031@s\326\3518eY+@\323#\316\t(n @q\263\025\207u\331\'@~Z\2408\333\374\"@\006\271V>u\257\r@\324\366\310I\325r%@@s\345\322I\270!@\257\254\215\341L\214!@\307\336\346\350L|6@\030\204@\316\376\276\"@\206\2242\270\314v\024@V\212J\016\313}\037@\025`Z\377\247\260!@\321\310\3231h\032\370?\357 \275{\\R\030@c\234\236\373\233\245\361?\300\243\024\024\t\006 @\2246\321\276$%*@J\364l5oI)@\251]t\373\252\251#@z\355]yLI @\n\325\303Sl\005\344\277\270-/\230vL\353\277$-XT\013\253 @K(T\242\262\372$@Z\226\226.P\241 @\375l\017;\206\033\036@\207\000\221\222\337\333\032@1*\210\005\347\341\035@|\374\340\247j\235\002@\0177\022.\005 $@o\223\335\016\005\332\357?Qn@#\217\260 @\224\232\003%\201]\336?ep\013\313\334*\033@\314\016\320\001r\253(@\323\200\203\356y\033\016@\252,\206\202\204r3@\013\235\375\237\310\324 @\304j\354E\306?\"@\370=YM\261\356 @\377\334\261\207\337C\020@h\351\235\031\343\250!@\373z\031 ,\024\020@\214\370N\314z\027%@wR,\245\3212 @\177\367\257(\374N @)\014\004\340#\377$@\021\000\000&\307\346#@\323\tp\223\264W%@Jz\030Z\235\310\006@G\332\254K\244{!@\204}\304zf/\016@\223\272\360\305\017|\277?\005|+\320\366)&@\251\362\274\242\373Q!@\310v=\037\005\306\007@\rB\016\204C{\036@\220\035\005\234f\202\031@\004\265f\313\274\274\016@\371\374\334B\352S\026@\332\352j\331\367f$@_|\023;\001R6@\233\336\2353\244\357\026@\317{\255\225\032\005\033@\357\266.\334\211w\363?\224\352\344\007\0142\034@K\341(\026K\023\307\277\246\354\357\312\000\274\r@\233\363\nFPQ\001@\006\243\350:\272\r\"@:\3561\344\032\231%@\266d\270\256V\307&@\2245$\315\243+*@]\320\316\2532\366&@\352\027\025\006\237Q)@\204\246\217:\346\364\022@\3625W\017\220r%@\374\2477}\037\r\026@\244`[y\250\005)@\352a\242 \374N&@\341\211D\224;{\347\277\272\312\262\336\252\346\"@g\360d(\010\221 @\331\367\377v{\232\024@\360\277\370\026\224q\243\277\242\326n\232\302Y.@.\370\021\030\033\367\022@\367{Z,\342\231%@^\003]&\203q!@\253\231\304?\2750\010@\221\005\204\2125w!@vp\326\376\323\377\002@\347\241\337\214\324Z\316?h\030\365K\357\021\032@3}\225\3153\370\"@J\007\237q\327\352\003@T*\3625\025]+@\230p\326Jb\260\"@\240\003\223g\323\340\"@\200\354\341\n\251\016!@\225}\231 \321\271-@\313{\021w9\000\360?\355\246\316\202\324\3572@>&@\267\0217\033@\327\264\336\261\320\221%@w\310\270\325\270>\002\300\233\353Mo\363\t!@{\336/\224\2039\375?\241y\221\355\242\364\036@R\235>\235S\206 @vC\016\242\2317#@z\343<Mz\320 @\301|\257\252)\242 @\256\024\324\200\331\317 @\317\214U\265j\314+@\327>\364\017\350+&@9\205F\304U4\n@\316\204\373\010\311L\036@\362\007J\244I\312 @Ni\317\365\025\233\022@\310r\347\311\002t\026@\013\316\2056\2455\'@\203\376[,\271x @G\010\374\322\274\022\326?aH`\t*\311\"@\254\020\342\014\366\027&@\377W\302\177_\365 @\243\316\334C\302S\032@\n\014T$1\217 @\343\357o\264\t\376\374?\036?L\251\350\245&@\331w6\305\222\345\035@q\375\036i.#)@\347\366\026\377\014\331\026@\362=e-\354\316\002@R\335\267\265\340\374&@.\270\027\177x\377\030@\207\253^\331`\310,@\217\207B\3649\241%@q\206s\361\335\332 @w \t\0000b\035@\344Y\204\215\2530#@\005\363\2659^A\027@R\005>gTM!@9\375\243\346\340g#@\211\235c\037\350c\'@\256*\n\3325\372\034@\375y\307\347\035\306(@ls8\372ev\034@4\256\013\201T\303%@#\375\017\023\201`4@\217\247\\\026Pd#@\217\320\326\216\320\t\035@^^A\0311\205 @\371\214\014\276\245\266\354\277!\214\002\361x\266\'@\036\276\257>\334e/@(\223W=\0319\030@\374\360\306^\374\243\"@[?`\222\210\302\023@\375\337\317\370\3279\'@\310\233\231\354\341\345%@\356\021\317\261:\253#@\337\346\265[\220\272\005@\257]\034\215*v)@\034Z4\002\311,#@\306 \236\217\254\025#@\004\312/N?\262\031@!\021\222\206\314\235#@\r1T\2017\247\031@\205kb?\223: @\234\022\367\365\317\273$@\333\330p\201\231G+@WI\236\312\355\252#@\236]\211\003\222\357\372?|\000\336D%R*@\252a\"R\221\000&@\313\331\202x9]\035@\347\314\367\005T\271\021@\214\005S\007X%+@\225\372\274&\307x\017@EW\376\211\205H#@<q\243B!\272\030@\025\366z\030\326\3540@\226\365w\303qh @lV\205\037\377A%@*\326\265e\334 \034@\223\302\037\362T\243 @t\267\251\211W&!@\344\360\356m\237\n.@\252\256\372^n{!@0\242HR-\244!@L\200d\261\202\014\027@\'Gv\257\327u\031@Xf&%\370P#@\202\3528\341\322I&@\352\332\363\t\224\235\366?sv\344\250\331b\024@\351_gJ\270\250\025@\242+\215oZ=2@?\016\326AV\220%@\211\243\330\365\376\031#@P@\250\305\2779/@\361J\016\257V\305+@:t\267A\246|!@q\277\256\354\243a&@\376\342.\317>?\362?LFV\375\230\316\031@\310B\206\353\3275\030@\\\030m~\221\376 @\335\357\333\006q\032\373?Y~\222\233\336J!@\321\311R\353\375\236-@\177\226\261\030\252T @TXFv\347E&@\270\342$\305\256\326!@7\026V\"7\336-@\230\037HvV+\016@<\332\022\233\212\254#@\231\324\177\277`\377\032@=x<\031[\273\026@\202\005\232I\200\014\256\277}\207\354\315\271\227 @\235\002\252\311\235\245%@\362\302\010\247&:2@^B\376\3142\351\026@\345fi\273\312g\"@\340\234\305\026x\302\003@\021\306\221\377\2608#@\340W\274\303\263G\020@\020\220\324\347\017\300)@(\373\216\261x\367\036@wi`7\256K4@_8c\332/\212(@\304\035\363*\000\350*@^\262\\\374\216G$@qe?A\030\242\021@;R\001 \274\264&@Kt\rh&\276\356\277\3308\230\326q\215\037@\204\206\027\247\316\231+@=\'\336}e\356\024@\265\336\370\245A;\355?\343a\353cO^\033@\2349Y\247 p\001@\260\273\314\362m\314(@H\033\366d\306\013\032@4.c\335T\020\"@x\034\033\216\2427\362?\304B)1:\232&@e\313M/\214_\345?\306\217\2140\240,%@<\231\207e\2263-@\205t\3332\236\366%@\036\275\310\241\321\277,@&!\313a{\276&@m\251o\3307}\035@S\027\310j\365\372\033@\023\246\275\373\302+&@\365J\233\242\n\240,@6\321ck\350\272\"@\003\252\214:\313\270\"@T\264|\241\243\030\033@\2215\033\022\224m @\003H\247\215n\3262@\231O\327\214l,\033@}\245\216\266s\245 @\260\222\326\262\221N\037@\214\013\356\244\021\'(@T\301s\262~Z\321\277#\202\033p0<\022@\357\032\214\302Bn\313\277i\252\'\363\217\324-@\037\026\244\370|y&@\252\357\217\006\326a\"@(\352Pv\310\357\373\277\276$\320\213\323\363\033@4\321\214\352\031E+@\234o\317\3515z\037@\017\276jD\264\3103@i\022\006\257\247\346 @\245\353\255t\2031\"@\0076\220)}\247\030@>\345\313\035\223\033\343?\255!\202\273\375\223$@\027\337H\207$|(@\016\376q\007Y\262\310\277\"\366\251-\354\366\026@\t\362\334\020\035\203,@\315\264\232\001p\346.@\2031\265\2649#\024@\277C\223\274!\0109@\006n\347?\307\302\030@erIY\257w\324\277T\200\241\247\376\324\024@\252\035r\361\277\354$@\236\350\314\323?\307\"@\225;\025k\026\216#@~d\204\001\225e$@\207\007b\023x\373\032@\244N\352\022\250\200#@\253hAb\232])@=\210\346\377*!\031@\341.\247v\031\317\037@!D\te\247\0221@\036>\007\233\334\235#@\272C\2709\375\271\035@\344`i\362*)\360?\202=\242\031\366\255$@b\3426\352\206k\024@yl\214\034p\356 @\367\336\022\222b\250!@\2647\356P\361(\367?\230\272&\002\247\377\034@\344e\'eM\002#@\327\212\3528t  @\362}\227p\355\326\t@\363\\5\210<\367\033@\0258\251\315\327\243\355\277L\372K\360%Q\020@F;\321\"\231\347*@R{\007\373S%\"@iV?\001\327\217 @\030\331z\370\305J\025@V6\263c\021\265\365?^\320\262V\003|\030@m\336O\305A[\020@D\036\271\034LH\026@\367\213\365\347\204\351\022@d\330\211\024\310\201\300?\022Y9\356s\n*@\210\315\2324\032\326\026@\235\206z\212\264\256\017@\376N\232\323Sn\037@\013~\2707\001\312\010@\212\014@\335\037m\024@\205\353r\306\007B$@\204\215\302`\304\225-@\367\213~\331\342s\004@\017\242\274\\\262\300\016@s\257\037\244\237\203)@\376\010G\271\311\313 @\027\257`\270\306}&@t\201m\362\313G @\224\026O\271\231\232 @\244=\337\310\234\204\036@\005\245G\327u\261\032@)\357\362\223\273\253!@\317g\316g1z\027@\351\374\317\362 \005\036@\314\001\355\324}\\\340\277\312OzD$\376#@\034\261~\202w\203\037@m\210\342o*{\344?\006j61R\373\016@\361\337\034\253\035~\034@2h\305\220\314\273\032@\342\317~\021%\231\026@\265\306G[\372\342!@\313\214\211]s\\\007@\351\202d{\331\220\016@\314\307\016Z\252#\037@\323\177\212n\263\364\037@\314\215\022\211|\270#@\331\230\327\021\207F\'@\033j-/m\254&@\215\322\204q`y+@$\365\\\256\227\203\'@\247\334\005\311\211Z\006@\372q\250\235iS%@\225\006\370\032\364\024#@\026\206\247\333\002\3453@\253+*\330\002\377\003@\346\240\3636\020h!@-\205\223v\233\236)@\321\264\262\347\254\363\"@\203eAh\n\211\035@$ZFx\350\244\025@oz\376Q\':$@\277\265\023%!\221(@\367\317\010s\021\324\007@\266\324\237\317\020J @\255\303\2179\350~1@jk\031\260\261\231\324?\274Vp\2574O\341\277M\224\357\337\335b+@\004\255\300\220\325-\304?\244\335\3318\021\354\031@;\361\346\272:]0@\037:\235a\363\240\025@&t\"\267\342K\026@\256\255\264\231\376\201\036@@\320<F\232\212\021@\'I\031i\220\037\317?Qx\371k\3547\'@\016%\244\177\2239$@-MB\320nt,@\314(k\333\375\216\022@\330\314k6\240\345$@\"\333\214\342;\346\034@\350P\300U\"w\035@\355<\345)\217\024\032@\361\202v\361\370$\027@\356\343p\377\364;\036@\251r\370\251\314\330\036@\214/\373\361n\271\035@\036\020\365v\334\314\031@\374\000\377\357\343\203\324?\361\241\273Y\300\177!@\300|\267\033rq @\006\272m\024\226N\262?\321-K\246\320\3743@=\016b\353Bg\'@\027\177\253\332\rx!@\350\373g\325\000n\'@\314.R\007\375C+@\330\377W\"\362\352!@\362M\313\366\276\314$@;\020@\007\351\005\035@\307\204+\257{\200\"@T\030\230k\212\255\346?JO\235\266b\261\034@rIY\257\267\351\'@\244\024\370\263\355T.@W];\334\004\177\024@{\301D\017\276\325#@:\241rt\336<\006@\241G\357\310\026\261%@\317\240\200q\231\214\027@\216\363P>\261O#@K\273\003\002\276\365*@\r\306g6\270\036(@\016(\202\325\344\245\024@6\222\241\266O\227.@\202&\333#H\273*@\226\022\rH~Y!@\021\325^\273\351\357\036@\321\360\027\307\t\036\021@\0170S\220(\217\005@\035\362Cc\365\006$@X\007\233\225H\361\r@h\356r({% @\231\360\210`\325\346\336\277\002\357\022\014Od\037@\007\247\262\346\317X*@D\220\275\275\357\316)@\341=w\352\3404\034@\375\326D\"\021\343\007@\006\361\201\035\377\335*@&\225\373\2555u\361\2778\005Cg\343\264\025@x\000\313\027\242M\025@\230\336\306\262\325w\020@\370B\267M\247]\025@-\375~C>c#@\336\366N\026\010d.@\236\337\331\031\004\220\373?\276\332L\343\351\203\037@\256\361M^Z\301\"@\024zj\346\252.\"@\307\016\302\215\250( @\256Ag\353C\257!@\363\350Z<;\315\027@\363\372\177\024\366n\025@y\251\236\355M!-@+[\271QC\r%@\345WZ\343\277\234(@\261)v\205US\"@\332\241\212\260\033\223/@\300\004\030\335\024\243\036@cb\375\343\3401\005@\251\376\275\353\236N,@\216e\217\212\336\345*@\317Q\344\234\032\236,@\002\370\300\361)\336$@\356W\035\023\0133!@v\233\264\314\311\345\033@\247Mj\242\256;%@\030g\365\326\014!\032@w\344E\257\321\245\034@H{0\347!\224%@\177\330w\3526\031\034@\337\022\336\360Ke\343?\t\223=\235\206\t\'@\353\2208\267K\303\373?A\3402\273\257\226\"@\316\314,?\371\016\014@;\321C\247\306=$@z\317\256f\220\323!@\346X r\341\017\'@a[X\232\010\351\'@\243\363\271\221\264\334#@\261\310\n\331\324,%@\351\034\333\351\t\016\"@\241\007%i\212\024$@\036D|q\36330@\362\r\212\210\220J\357?\342\335\0201\305X!@\006s^\335]2 @\005\310\230\007%\262\034@b\320X\347W\364\300?\0270\247\"\032s\032@\375*\363h@\313\034@\027\351\367]\016\276#@\022l\267\270!\357\'@\030\253\nc\304\307\032@Q\216\244\322\277V\036@&\323\025*\007.*@\365\016O`N\260\"@\360&\302\375\265\251!@\360\366A\022\3152/@\206y,\t\222\305&@&\211\263\217\006\227\022@\212\240\256\021h\340\356?\215\211\360\326\311\016\355?\337\254=\303\006v7@F\260\026DI\265\031@\022\226\343\333\334\014&@\337\200n\346\222Y\017@\350\241D\270\272x\"@LV\342\215\016F+@\356\315\247B\307\' @\355\250b\021`*(@\340\"\263Wx\027#@\210\024\301\007\310<*@p\313\204\265\352\014\026@\226p\275\255\301s\037@\330s\0046\010g$@\367\327I\202\022\264\010@\000\242\252S/7\032@\"\314\001C\325[\"@\3209\257\031/\211\037@)\212vf\231\271 @w\207\261\330h\215%@\223\360s2\'\016/@\360^ \316\344\223-@\237\227\231\270\246\326 @j\375g\254\201\002(@=\210\225\270+\204\"@\023\026\r\000\362E$@lJ3\217\\n\031@\224\250\223C\366E\"@m\376\023\347\236a\371?D\016\370\231\006K)@\037O5\364\3736\036@vI\244\206\231\n+@a\314\361e\375\023.@\353\005\360-\344\036#@\336R@mcr\032@\344\003&c\301@\022@\315\033\367Kc\004\"@\006p\314\025R0-@^\0079\265T\352\032@\252\235\371\206\3265\033@\361{k\305\3262 @W\366* W^#@\344/\007#\361P\272?,\364\240$M\201 @\240!5P\215%\037@7Q%\254\210\364\016@\375\337\215\334\005\214$@\031\215r\354}\345#@\230\214\017%\355\333\026@\203\341a|\306\317#@R\253\371;%\333%@\270\000*\330#\356#@p;\324\271\031\337\036@?\303\037n\034\213,@/\005Zp\365\022\307\277\010\360\253\254LT%@i\306\254[`\322\003@]\273\252o=\243\331\277Y\302c\n\231u\002@j\310O\025\031\026*@\327\211\257\234\333, @\210\256\270\366\r\353&@b!\245\237\221D\340\277\355\036\277\0101\307\364?\235i_\314\330x*@ \003N\366\234^\034@5\263\330\036\244\236!@hC\240(@\241!@!\247\335\037W>#@u\371\222j\370h\020@\267\037\002\244\274\026\023@e\202L\370\306\004\366?\343p\353\020-i\307?\335\037\326\270\212\026 @\215\223\365\255l\n @\341,\367\222^\017!@;\312^BG\311+@\030\273\010I\"#!@\326\303\033\302\306\t-@\366d\204\013\007_\002@\233\353\260\231\256C$@\341|\\\256\215y\026@\263\353\251\230\364\016\006@\311Q\377\247\202\235\"@\002\222\331\356X\215\036@P\275\257v\206v\021@\315\213A\227\330\207\"@\024.\300Kd\010\"@\374\376\206\266\207$\036@\273\235\032\273\206\t/@\337j\000\343\327m$@S\000s\312/A\003@L\207#O_)!@\000\310ZZE\022\"@\036S\213I\376\366\035@&\244\n\206@4\014@\023B\220N \030\037@\334V\304\372P\373(@/\000\321\357\242\247 @L\002*\325kV#@\353\025-x\205\212#@\360D{\202\345\354\030@b\211bM\300\324&@\261\034\322\274\244@\003@\031\034F\275\267\036 @\330ahO\253\230!@\'\243bMy\021\036@\351\342K\265\n\363\315?\226q\031XC\273*@\0103\245\251)G\033@g<\370&\331\266(@\347\306\255\257\231\233\024@\373\276M\271\241G$@\025\0179\307\312M(@\346\356\376n=\301\031@_,\210X/>\'@5\256\376VR\265\031@\367\204\340I\357\003\032@\343\351\263\010g\232 @\016\347\257\312d(\'@L8\347\354\014o\270?\224\326\271K\335m\032@$\351Q\363\200L\035@q\335\362c\\\271\n@\346\236\246}\020\207%@_d~E\351\020,@\306\342~Z!\335\033@\237$q\027\340\t\025@\333\2130\221G\270 @\"W\250=>p(@\033\252\030\235\342\203,@\371\210\242\204\274\305\365?vM\253\225\307~%@N\211\034\t\321,3@8\347\306E\314\232\034@\347f\376\037\307?\026@v9*\331\337\303 @\355\252m\256\215$!@\362R\0051=\'\"@\'\235\212L\247\200%@v\366:Nv86@\336\263\307n\023h.@\204\177e3\364\336\030@.B\312\262\324X\027@\320\2612\003]\323\020@\006n\216\207\177w\t@\237Q\302exj&@\3621\263*\035\347-@\023\213\003\333\315\345\031@\021\224\262w\014N,@\220\347V\257\362c\037@Q\251L\020\371a%@\215_\217\301>\005#@\342j\360\000G\275\'@A\353\310.\244q\034@N@v\213~p$@k!\257\244hW @\237\227\345F\354\322\023@\347\374\303\177\202\' @\336@\375>NL-@\017\200v\217\205;*@D.\233\255z\306\025@\343\346\216\335\211@%@F\303nGT\302\321\277K\330\303\006\'<\301\277\332KC\"\247\212/@\027\215k2\231N$@r\355\215\037\377\203 @\257\r\010\271\372a#@\200.\204\026\276\260\r@s}a*\344\347\'@\340C\376\243\263\363\017@\202\245\367\343\257\276\"@\256\236c\245!\001\033@\246TWxv%%@==\303\217\302\231\350??\300/5\017\266\013@\266\202\362\263\233c\"@\264x\353\333\315\022\'@\250\000\224\226\374\361%@\250]#\264\253\261\302?N\n\322\020~\253%@\022\314fH\364\232,@\341^\265\014\032\367\026@\352\005\300\364\315\n(@H\206\342\257E,+@\354\356KGJh\004@\210\264S\224\307\234*@\332g\0005\326\276*@[\274\372\246 G\324\277F\307\313V;\363\005@\372\030\203\271\243\342$@n)\371ny\225!@\024\361}Ap4\035@\227\\\331\306\036\274\035@\226h^Hf\031/@\001\353,\013\n\362 @\203\027k\"\255\273\033@n\262H>o9!@M\005B\326F\022!@n\333Z\323zE(@\370k\214\177\232\252\030@6O\020\235\347\301\005@\\/\372\310\265\004$@\302P\335\025\'f\034@\035\271\233\313\000\234\344\277r\304\030`8(%@\2022b\246\272\342\032@\360\332\0108B\344%@\030\211)\301}\333\033@\303\237\026\300\352\301#@\026\005n\233\261O-@\301\372\242\261\264\025&@\002\324\215\335)\276\024@WBV;\263\310&@[7\255-\237\355*@\031[\245G\2257\030@/D\000\320^\351!@5K<\177^1,@\304\230\243\260S<\037@dyfh\215\250\030@\'\366z>\235\375\034@\266\312\237\261\'l\033@,\245\253\227\206i\001@\351o\225i,T\"@\262\231\350\230\230\311\'@:\264\247h\325 \034@Og\274\347\237v(@6/\264^\377\372\020@\346\'\310\024\033\227\377?\253c\215a\353-&@!-Q\232&v\037@\241\013i\333\320\025\031@\331\376\0001*\221&@\2466x,\244\226\001\300@B\336\274\202\020$@\037\333\256\247\210\003$@\313\376\372\232E\241\"@\377S\251\215uY\030@\343\3249\314\270\031.@\356/<\250$\004\016@\2029k\321\261\252\033@3\260edV\227#@7|^3\361=\036@ieo\347\312\361$@ri\374\302+A.@\245\373\'\"=e @\262\325\006\243i\010\"@\221\262\020\340\236\330\034@\006\030B@QX\004@|D+{;\213%@\000\013\221\272:]&@\017%U9\277\373\023@W\346\345dm4#@A\260@z\336c\025@\211\307s\355sS\362\277|\215\260\352\244k*@rO\272\241\347|\'@k\3017\277\364\263!@\252\233\315\333\277\271,@\211af#\000\335*@a\006|\341Br%@\n\321\022E\367\016#@\241\252\031\204\177h+@\003\021\264\222\356r @7tP\025\225B1@\337\205R X\300$@@\025y\212\003C)@\007\376M\256}\'\005@\023b\226\214O\320\033@S\025\035@\364[\022@+\271\033(\026\266\374?Cp\277\360\010N%@\2622\2402\214\006!@\224\367\324^\002\351\033@\001*\342\225\240Z$@\273\266f\024\223\317 @\207\021\210\370\003\247$@\351\234\360)8\036\034@F\230\242\\\032\0341@n\340>\r@l\313?M\275\243\003\350\245#@\265U\3469d\361&@[m\017\214\315:\'@\330\351e\346\222\312\032@`\345\177\333\333\016\"@\032\265\244\236cG!@\355m\373j\203O\036@\312N0}^\"\026@W\344\235d\'\307\004@d\\\3558\260\220$@3\265j\254\004\310\367\277\211SZ=/o @0\245\373\'\"\335\362?\273\002</6\361)@8\224o\360d\303,@\236t\227\316\313\330\035@\265\t\033\2214\253\"@k\207fn#[\036@f\352CQ\177\325/@4\267Y\364\0028 @{\033+\311\353\334!@\322\n\343\331\253\0101@[\366^[\3033\036@\262K\240\375RG\034@\355t1\027\002;0@\355[\367\240\261\006$@\315\t?\020\327\202!@\030\006M\307s`%@n8\311\342@\266\030@~\263\305\034\241\3645@\246y\263ES\255\036@\000\373\215\033#\272\'@l\265kh!\000\030@\214jX&\330-#@\270\350\205\267\336\177(@\024\005\033S\207\0321@\254h\343\360\230\"!@\376\230\362\373\340G\352?\324\215E\r\205\217&@$\243\332\022\177\303&@-\355\372#\021$\035@k\231N\343\305)$@\253\341\tZ\324\371\003@`jj*\242\236\323\277B\307\365\214\320\3010@\211\362\201\364\177\036%@t\t\\^\206\252 @\206\335\301\231\251q @/\374\316\231.8\027@\242\324r(\3020\005@zr\311H(\223\034@\334\032\205\342\226\264-@\002<\263n\315\231,@\337\276P\270\005\322\'@\237\276\034x\340l\020@\254\253\3274\274\342\"@.M\206\355k\374\024@\261\267\023s\260\261\007@\226d\243\307}\223#@\320KUr\377a\037@\026\036>-b\337\351?5\361\212\267\000\322&@\372\267Tp;&#@kwmA\177}\021@\300\t\253\317\332!\"@\201\003\377\000\020\314\375\277\271\205S\213-\037%@\363\036F\214\307\212\022@\326\305\005Q\013Z\032@\350\031\230h\322\324-@@(ncS\265\002@2\343m\245\327\216\370\277[T\005O\223b!@\357\310y{\347**@\023\266\007pf\263\262\277y^\307\013+\355(@\246\3450-$\345\'@\377\255\355\270\244; @\211\340\311\270\363\340$@\250d\255_\270|%@\217\030^\305\271H%@\370\264\341\265\355F#@>\304/\212X\'\"@w\374[%\3773\"@\321o%\\D\262!@\220|t\326\346f\034@\022+\212\364.H$@v\275l\357\336g\330?_\356r\225\027x&@<\350\247r\2715\362?\214\376\332>\0079\036@\334\321b\235\350\0202@S\033\365@\306\264\024@\020/\374\236`\212,@\226F\006\230}\203\r@%tb\322\211\253!@S\333\3605\260W\342?\016W\256\207\224\006\034@\352w;\244\023\315\"@h\300\322Yc\221\r@\024\376\024\340\036\326\030@#IR\312R\017\"@n\n\226\260W\304\346\277!CC\326\205\345\300?\253m\2228\216\2170@\253m<8\3251\036@\035Adp\030\323\037@\304\213\251\347\351\033\363?d2\364\006\232j\374?\274\367L\003\372\207\"@\324\331\323R\234=!@}\355\\\302\350\370\010@Me\325\020\352\264\034@!\026\241@\356\376\"@\201\007\326\326\'\217\033@\204\343\t\3578\332\'@\020s\247Fxg @\237\021\2610`|\"@T.\032S,,+@\2708 \305\335\244 @\252\307P*\356\370#@\223\370?4\261P$@8\037\026\353\315\010\027@\021\211p\003\246\002#@\004\363\355\343\274x#@Cn|\251|\206\034@u;\325\003\341\301\"@\232\t\334s\306s#@p\362\273\346\336\262\027@gc\302\273\236\264/@t\003\335\025\374Q\366?\365\242\307\006\n\005!@\r>\305XCU$@\302\335\342\254K7\315\277\200^~\310\327g!@OE>p\024g\330\277\3479\236\246\001q&@O/\177%Z\205#@h\321\371\370\235\t/@\340a=b\262\274\033@\205\326`m\316\225&@\036(\355\226\257\020\032@\363%\373\2670\221 @_@q\370\213\2333@\332l\000\304\312/\033@D\t\206\265)\205(@\003_\367tz\344\034@&\351\256\255\036^\322\277Uu\020\355\303\327\014@\376\246\250\341\370\017\036@\266\341R\303\356\323\356?\3355\036\365\242y\006@\264\005B\272\361\261(@\272-\371\356B\036\026@D\030\375p\251\n0@^>\006\3511\t,@;\274\340\006\2161\014@\031\277\327\255\361\031&@\265\026\037\314\021-\036@Q\313\324\371\367\226\017@]\020\340\340J\327\"@\305\353Zx\347\035\036@\273m\2033(a\030@\037\257B\365\317\262\t@aF\343\026\024~0@\277\010\236k- %@\024|\032\312e\210\035@1\271\232:d\212\354?\310\033\022W\313\026\034@\360S\314v\302\363\031@,3\235\204o\367$@\256\273\312\361B^\345?\033\025r\204\220\266\'@\"\325\226\213\017i\"@X\334$\253\307v%@9H\336\362\276\001\"@\355\031\316\244i\362\372?f\200\2121P\362\024@\253\256_\212T\243\025@\241\355\320d\212\377\035@\335v%\362\362\2421@\204\270\264\022\241\365!@\010\314W\212c\321\037@w\247\022\320\n\243\033@\313\370\224\357[e\034@\271q\2732\320\232\036@9\303\242\\\371\262 @\365\200\232\326}\264%@\027\'\223Z\365\177\n@\301$7\270\344\002\035@\3365\210\331B\005\026@\330\2777\302\254T\r@\253N\234\026\233Z)@FI,O>\364\036@\240J\264\201\307w%@ycK\323\303\333\017@\267\005\021\312w\256.@\031v\243\205\207\305\025@\324\377~\240\370\215\026@h(($\035\206\'@\366\274\205\357\251F\014@3a\207s\005\212,@]\007\215\264\342\270\352\277+\212\345\003\363y\007@a\032Ds\266\357\033@>\233\362t\360V\'@\211\345\236\307\213m)@ \n\231=f\322\026@\237\034\211\300&02@EL&\372\276\254,@\244\264\302\352K\233\360?0\370\321\374so&@\257.\360\332z\273 @\222\375\204\227\006X\031@8\2177\267\021\344%@\327%}6\177\207!@\2273\241jp\232$@\323\233\320r@x @{N8\303&1\000@\r\027\332\265\224\364*@\027\220[k\246\t\037@\203\230j\267t\245#@\3622X\253U\265\035@\205\363\t\326\301\314\310?\022\\Y`\227\036,@\027%KZ\257[,@\235\352\271\032\023e*@\341Kq\355\365 \037@\354\263\247=U\260\360?\206\374\255I)\207\021@<\252\t\276Cs\310\277\376:\363O\311y\005@S[\345g\365\376\035@\333\212\232;<\227#@(\3217\016a\r$@1\320\326=\211J-@\347\030\024\366\202]\030@;\314\023\337\273E%@\234\001\332\310\010!\"@\000Fe\375E\275!@U\242c<\207\316\035@\302\000\212\335\263\277\"@\013\234l\003wF\035@2)\304w\360V\027@.A\023O\340\313 @\005c\027!ID\325?\231a\323\345\365)\312?r\225\r\274q\010\026@\004\210\272\303\261\304\032@\317#\363\206\003n\'@=\266\351\370\375\345$@)\275v6\322\230\017@SC\016V\013\272 @\026\245=\213\311\242\007@\343S\223\3578\266\364?\317\321\\\007\004\267\t@\303\301\3506\004\376\030@j\277s\367R\'\001@\274XZ>y\037&@\352g8\005\374L#@\240^h/TR\035@\025R\002\213\221\357\'@\343\020y\344r\n\027@\213}_\342\343c @\367\310\213\361\006=\327?{\236\024\355\367\212\013@j(Z^^\241)@\375j/\036\265\256,@\242\214o*}\033\023@\337S\030\337@\220%@\330\205\354\252\252\001\367\277:\345\362\233\231k$@+T\324\354\303r\247\277\2628\020P\351\305)@0\327\201\367~\350%@\324^e\351\032\374(@\363\'\333\324\001\224\"@\330\352\361\311*O\350?\231\016\264:\355}\"@\234\260\026\002-\0241@\013h\2363\324p\027@\240\r\303\276\322\266\356?Gq\361d\365\2020@.D^A`\360)@/\233\306\027i\\0@\213B\201-eE$@\245\022}\302\002=%@d[\352Fvr\037@\036\314\273$\255($@\326r\251B\352,#@\177W\2128+9\034@\331\t/\301\251\013%@\322\020X\260\302j\253\2779\321\021m\205l$@\341_lp\016\356\014@;\006\323L\321\223\365?\023\213\214\314+`*@\275/\020\377\016\231\025@c\202$0\371\304\034@\325~.\3041\357#@&\224\327\255\022\354/@~\037\001\350\237\234\000@(J&\315=g\022@\023L-BN)&@\276\254\3560\244\227\034@\207\323\264Q\276y#@8f iL\253\"@\355\\%\023HF\"@\002\263\361I\357\300\"@\310\"\023\021z\201\023@\211y\313\337\001\001\310?p\020^\317\230\320\032@\360&\275D\374\302\030@Z\341L\002\212Y%@v\257\356\263% -@K\363\214RI\310\027@D\320\330d{\307\"@\255\275\202FFM\336\277LD*R\202\202&@\311\016\357\0160l\010@#:,V\322\261\037@iM\344c&\013 @\004\223\307EHl\271?\312\343\345\300\335+\006@\355\373\211-\261f$@Z\035\020S\350=\010@\236PM\036V\261!@\005+\310{G\344\032@:\026%2\275&\006@6\244\rd\226Y @\330\252\035\370*O\302?\005\243\343\201\000\221\032@\253\024\235\215\336N\352?!&\203\321\034]#@\223MJ%b-#@\264\241\327\2516\252 @\020\227\332Zx5+@\331[\3722y4\370?\3710*\222w\304\033@\236\302\230\224\205n\017@\212(\310\375~\247\036@\033\322\013\353\204a$@k@\221\342t\312!@\033rx\260\341\r!@\371\r/b\2012\020@\325\314\336B\354\3517@\352\305\300\242q\326\037@\014\352j\021\242A!@\335\261\345P\027\023\037@\026\3233Z\232w%@M\2540\326g\t\371?\0168Z\364\237\235!@\016\037P\267e\200\366?\247\253}2\255r*@^O\256\010\202\236\'@\353\366\323+\327\036\357?\340<\026\207\245$\037@\245\315\013\214\311\026\027@\203~%\336\241c\031@\232\226\341\n\353\260\306?<b\231#\320!,@\260\263\344\233\264\205\"@\225J\207m\334\231\356?\253C\277\315\032\022 @\260\324\'w\247o0@$\362\350<\346\352\034@\252\010eQ@\271\347?\306\022Z\377|\243!@>&\255S@e\'@\024\340Q\351{\033\033@\264\306\003>\375\033$@\367rDc\222\352$@l\030\221j\320p&@\363-b\216\324\365(@db\312\362;n$@\200\014_WzD/@\0240\r\005d\310%@y\021\3117\253\352#@MN\"\377\"\263\026@RdY\242F`\354\277\354$7\227\326?\362\277j\261F\003\231\261$@\342\252\345\340/\254\006@\271=\275)\027|$@\255\215\312\260\376\201)@\213\275\037\320\3746\361?\271\027\373?E\361\032@nW\217\313\035\n\"@\272Z\320v\252\216\032@)\264\036Q\260\200 @\227\231\377{\343\235 @\222\366q\372\233\372+@E\342\222\2412\315\'@\264D\307\013r\020\030@\000\247\230\377g\031\031@<7\017Uh\240\363?.\004\035\3231X\001@\364w)T\273\221\030@\352\026.i\2249)@\213Y\006\007A\364$@\250!G\306\254\201\037@\356\210\037p\030\224\"@+\325u\020\212\357\032@\315\020\311\273\343a\020@\322\361\214\016,\377\032@b\007\211E\360%\345?b&)g*\227\036@\353\322E^d\325\035@\317\266\036\256j\275(@\215\356vv_w\"@K\356\364\246\311Z#@&\205\201\000|\224\030@\267\246U\001\262x\353?-\347\030\261\313\373$@\005\366\373r$Y*@i\274\005\366\276\357!@%\357\024Y\010\032$@\260\272\262d\276\200\031@&\312\023E\236U\023@\375\346\264]W\346+@tk%\266\263\236.@\263Sb\215i\024%@\315\313\037\333Kg*@4\353\'\304\245\222\023@\334\316\245U\200>0@\356z\3674\030\266\035@,\273`p\315\2402@AxT\377\227\313 @\373\376!\213\241\266!@o\316\261Q\020\251&@3\035\370 \035Q\033@\241 \343\027\177;,@\331\371\337\223L{\360\277\355\2151\342\310\3255@\211Y\222\260-\021,@O\347\016\213\346\301#@d\367\221\031wq @\020\2605\337\261M\326\277\370\346\227\276`b @\363n\035\375\336\257\004@\325\006}\242\030N\030@\316F\370(m\277(@\353\245\316H)\033,@\001\023bu~d\021@\233s\377w\225j\037@\376\266\321G\263b!@x\005\211\212\304\020\'@\207\367\r-aJ#@f\023?J\025\360&@F\253\203Q\203\320\364?\256i\302\034[\366\"@\036\325\331^E\271$@f\207\031\226\026@$@\263\2059\244\305( @*`T\265QC\035@\360\3500sB\325\030@I\347O]\361\271&@P\3632\343\235\242!@\240h\031\007i\016\021@Q\355\'\361&. @U5{\177\007M+@\264\227\351n\t\2452@\025\242\270\355\277\217\022@\017\240\363\333V\247!@\201Y\256r\371!\033@\317\241\353FH\312\033@\227\270D\344\252\266%@\361}\203\214\006,\014@%}\001\2157\324 @\300\277R\247M\262\t@\265\213\006|\300\206-@U\200\352}\265(\"@\310O}\374\262\263\014@W\330\275)m\200\360\277<\230\373\201\376N%@\353|\354\3543h.@\016\033~\232\007\006$@L8\364\026\017\221.@\232\3141\206]\323#@p\\\177x\201<\"@\263k@Y8j\035@\306\361\2152,\340\353?\311\341\325j\366\353.@_\314}\017\352,,@\253G\347\3521a#@\373\036\021-[\334\031@k\340`\322\214\327)@Cu\202\034\345G @\310Al](\242)@l)\234\264\333<1@\326\236\272;0O\"@\271\321\237\264r\000\025@\030\216\357\244\350\177%@\251_\301\264\252\243\"@\370\365\t\301&\332\'@\263\200\t\334\272\3250@K)\001\2243\350&@\003\023\333\204K\345!@/\352\225\335\214\271 @\223\367\251\336\245Z\027@\301\2771\231d\261%@\327\351\332\363\t\324\036@\020i\206\032\246\344\'@B/\365V\321\2503@\033\370\201F\021\t\025@\377}\337\"\244d\032@@\234H\257TK\026@\004}\\\372\033\305\"@A\221Y\203\030T+@\007\350h\234 v\016@\260\274\007\217\006\327\035@\316\000\2649\020O0@\327\002s\333[\225%@^\333x\003\016\2134@\272/\021\266r+\350\277\374Q\3535\361\205\021@\365\273_\356[\315\001@\324 A\373\325\336#@\3011p\345\221\020\'@c9#\3713<\035@\332\222\023\365\233\324$@-5;\205n,\324\277&\255S@5\327\'@\337\020\2217L4&@\346bgeV\216!@5\\\252\363$\336\023@\244\343(H\205\276*@\"\252\377\222\245W\022@3\007\'\363\246\272\025@\214L\021\367\220\204\325\277~\217A\301\241d\353\277\244\275@\227\020~\003@u\312\243\033a\017*@5\301\005\023^\256&@(\250/\353\310\265 @`\356\235\025t\210\034@|\032\203\220$u*@G\034k\254\350*\361?yJUzp(\035@=\022\035l+E\"@\030tO\022\243g\033@<\255\364=\227q&@\224\321\252\221\273\352\024@\271\374\267-\362T\355?X\2641]%\363%@\027\032_\346\001S @\214\032\261\356\326p\"@\2004s\263\005\025\357\277P\320j\244L:\235\277uo\311\232&\352\036@\250s\226p \201\"@\2673\300\303\274\3251@ \005a\004\023\323\253?r\346O\0028]\'@\324\364\270\363\355F(@V\255\003\"\357\306\"@!asiW\364\374?\213\222]W6\255\344?\2611\027\007\203\252\275?\337pzr\250|&@j\336\234\n\353! @\211a\250?\322h&@\247\223*Yg\341\037@ \252\327\312\327\311&@C\347\375\313*\232\002@\365\247_\262\211#\032@G\2568(\243\336,@wGO\\Q\034\016@0\030\342\254\026K\037@T0\360\375\211!\273?\311\256\344\305\352\346\027@\257>N3\005\322\027@/y\260\203RI\"@A\265\221P\322\242!@\256\350\234\300\360O?@\214\302\027\356\250\360\032@H*\363Y\025\027 @\023\252iQ~D%@\336\032\\ce.%@r\032\356\230\304) @\336\360\2701\010\323\035@\035\355_)00\027@\341\213\224\005\312\242\032@h\006Ye\222p\351\277\303\2637\n\246\340\313\277\320\320\264\316<J\037@\267\311}\262/\323\037@\305\375=4\320g @v&\220\271\002\273\037@@\210\212\217T\255\033@\322\014\356v\331W\037@`\214\333w+\314\037@\037\367\214\310\240\330+@D\031&*\206\245\030@\351\207{\246Cn @\216*X\035\030D\277?\340\234\341k\247x @\271v\315\244\200\346\365?lo}y}q\'@M\316t\242i\304\024@t>\021\3133\r\377?*Y\014&\027P.@`\321\306t\225@$@\243\227\002\346\342\370\037@&$\353\323\236\230\026@\356\231\343\344\227z-@\376%\026\351_\272#@\\j\20765Y\035@\311\226\311\226\003N\005@\340\000V\356\325\216!@\370{\265\345T*2@\345c5e\300\264%@Jn\240\002XU\032@\324\260\010\223\034^\"@\274\010\317[\247\003(@+\'\026\002\375\331\"@N\000\276\016\256\262#@\314\362\177\213q%\264?\223\037G,\217\367\032@\307\352^@\222\316&@\341\271\326b\340r\023@\t\003\227\023)\207\037@\327KS\0048#(@\251\266\316\321@\223#@Oe(Y\024w(@\237\337l}\325\035\353\2775\002k\201\257O\024@\010\331\242\232\314h!@\n\014\274\007\246\002\023@\233\265~t\226\315\023@dl\360\327\307\321%@\2043\300Qg\013!@{\002\216(\340e\032@\351\226_\376\361\323\007@\225CVz\027\\\033@\356ZcL\321\352\'@\010\231W\272*N @\354\261\263<\235\342\034@\014\2651lP\250\006@\215\036\326S_\233\030@\227\246J\214L\361\'@\250S`\371\332p.@\231g9\221\337\377\036@\035,s%\310\337!@;\331\027\032\231\021\265\277\353\034z\300y7\n@\322\363v\235pI$@A\224\251.R\251\036@\223\362\346\262\311\026&@Hb\325b\350\273$@\306\256\'\231 s&@\205\305\260\3345\235(@\213\303\272m\266&%@\265\325\264\244\006\237)@\014\"x\232\3219 @7\225\034\342\345f$@\001+\367j\226\246!@5\335U\211^\373#@\306w\023\220\267O\035@\032\220\224_\314\267\265?\0101\237\305\265\334(@`0\013/\271<,@\003\222\t(og\"@.K{P>X\"@K\203\301\206\276\261\036@Xj~{%\342 @I\267t\270\225Q\036@\237E\335q\004\245!@_t?\310.z0@A\277T\013\243\373\340\277}&0\3329\243\"@R\255\004\331R2\025@\360b\265\207*\207#@x\030IqD5*@L\262\202\235jx\021@MW\003\326\242\344%@}E\320\373s\227\036@\357\210\337Tq\371\014@\201\270}\037\246\247#@q8\363\2539`&@\267\002\320IkK\366\277\034\366R\343k\207\"@\233\035\251\276\363\021\'@v\323\332\362\231e%@c_6*\005\037%@ \227\204\200\206\251 @\375\334\257\206\264M1@?f\220Pmg\032@?\230\014\256VY\024@\370\213\270\204l\226%@\377\361\216\356H\325 @\240\351\212\361\030Q#@d\350\037\027\261\000\025@\317\334C\302\367|&@\re\321\t\333\232\035@\323\360:\326\035\347\366?^\260\254\030\324\367 @c:V$\204d!@F\n\273\341\2448\017@\222\017hS\357\025\304?e\236\350\374\014\n&@\205\345\206\341N\372\031@\310=\213\025\235\335\021@_\030~\252\351\022%@R\204\336_`\237\024@\201\373\227*lA @*F0\352g$#@l\023u\206\254!\010@\032H\274\341\343\234\'@r\235(\004\320\305\"@a\314Gf\266\220\022@jiMw\307\t+@~J[}\361L1@\332\023,\'\004\003-@\241e\330\206\\\302#@\253\242\252\317\366\364*@\376\t$\344`\327\021@nyz\337\327\3402@\2075\225Ea\373\r@\205MS\272\252 $@\333\246a\300\336\271\024@\214\257\\\300\342\374!@\310\373\345Q\371w#@\346\310-Z>\246\'@\3179p\265\353\r\035@fm\215\347\267\212$@q\244\330v\177\221\351\277\337iS\361V<.@)\373I\335\027U\351?;N\241XF\260 @?\362{Y\342\310$@p\310\3554%\2032@z\271\374E\330\355(@\337\223\257M(M\007@i\200\373\317\324\300\024@*0F\037Q! @\271SL;\273\350\036@\241}\271\n\272\212#@\265h\307.\315\270$@\211\217\352\234\350\n\"@\254CE\007\352\247\037@\271\353Lq\272@\036@\350@\305\'S\013&@\323\222\277b\252\340)@\031\227\n\'\362\017 @A\342\034J\364\237\347?\212M.=\317\214\"@\271w\325Ot{\035@r\2774&sO!@\332\233$\0052\220!@1\276\031IC(\034@\255\326u\347\n\250\320?\246\237.Z\231}!@\020\343Q\004\032\307\034@Aj\333|\2302!@\250\017\260\230\tY)@\215\223\210\021>e\'@\371\016\341\014\274\322(@zrM\201\314t%@X\3773\277\244\037\024@\373m6\3637\037\035@\250\"8\325*}\"@\360\022\263\226\266\000\"@{%\271\221\354V(@\017\211R\255K\0057@7\342\272C9\256\037@\013/\034c\202\003\032@\336\320\020e\332\006(@u\37222w\322\022@p1\222\177^\201-@\370\033\3028\205\305\021@V\370\320\221\236\\\030@K\345v\372\004~\030@d\022\201,<V5@\177wohqF\026@\320\371+\217.?#@\032\'\256\370\300\267&@\364SL@t\307\"@yw\355\235\224q\035@\327\020\240\317\025S(@\333n\352R\017\210\t@\323\300n\\\357\366\037@\016\270\021\303\314> @\337B\325\352\326\324\"@\342\201\221/R}\"@\301\210de\207*%@\261\353I&\310\\+@\255\233\030\263\241v%@\332\200\337\361\263\"*@\336\237\336\316\266\311&@b\210\260\242\205\251 @\225\244B\247\255\340$@\305<\230\005\364\325\001@wFB\370\243X2@\216{\305\343:/\374?y\355X\300\222\262\023@\230<OPKB\"@\357\367\223J\3336\'@\236zX3(\206!@|r\325\273\3068\032@\216V\030\317^\274!@h2\341lz\010 @\026\371~5\312\006#@\nq\316P(@\307\277\337\375\2164\372y$@\320.[\302\0141$@\261\021\244,%\030!@\333<n\365%\222\037@\273\342\356\033{2\"@!\260&\332K\276\000\300\233)B$\"\234\036@\",\021E\324\254 @ \t\373v\022+)@\235$\247\300\023\361!@Zk\033\213\025U\031@.\231[\010\017B0@\305\243}AEu @\375\332\3650\206<#@\240\017\2770\323\317$@\227\013K\362\022\030%@\230\352\336\227\356\306\354?r\332t\2007\251\035@\355\313\016\373\201 !@\202\225\304\013\202\004\335\277\233n\353\004\272J\223?\177\276-X\2523%@\371GT\262\340!\351?\252\2348\261ng(@\347\271\256-v\026\017@U\350\204\034\320B\032@\367-)-\022\235*@\340\254\201\340\003\347!@\\\252\n\3015X\"@j4\230\n\0321\"@T\262R\367\267\360%@L8\330\301\337\\ @\3660D\346{\302\031@K?N\211\005\311\035@t\3530\204n\005\030@2=\226{\327!\001@\027\313\035\313\365/*@\254\035\203\035\030\020#@E\323\244\327\020\003\334\277\344\366\320\340\344F!@\302G9\242\277\203 @\004\360\271\215\262@\000@9\031\020\262\020\303\361\277\205\206r`A\261$@G\302\332\362s2\031@Dh\210S{\361\036@!\267W\315\020\002+@4\255\257\326\322u\037@n\332\207\032W\234\000@v\310jFH\357%@\024F\016l\360y\026@_m\030G\335\017$@\332\346\347\002n\276-@sl\337\3216\332\032@t\334\356\272\276\260\032@a\321\332X|\023\006@]s\363\377=y @C\237\372\315\345@\033@\225z\220J#9\325\277p\242\n=ji)@\024\032\036\201\223\217!@\'I\031i\220y%@\005t1\226\201\374\003@\234\340\233\246\317\246&@-p\327\035\033q\032@}\264\211\252\227\035\"@\337\341vhX\271#@\373\370S\374B*)@l]\007Z\303-%@\340\230m\300Jx$@\264\355\242Rf\305\024@\2528\037\350\262~\022@\023y%\330\236\260\030@\n\332\322\r\216\026\r@\344\025\336\236M\350#@\322b\254\023\360Q\033@\344/\312\277\330c%@\031)\177\352d\030\267\277\3126\1772\027\337\016@\rf\360PDQ\361?\220r-\343q\270\014@f^\365\035O\007&@;d\213#]\262#@E\273\n)?]%@%e\377\372\360M\001@Q/\3704\'\215-@Z\021\322\246,\303,@@W\021$\245g\010@\375\321\310\313\300\037\035@\240A\221\216u\020\034@3\377\"G\276\3432@\301\343\333\273\006\277\037@\340Ss\230\263\'/@Rl\002\225\274\205\362?R\356\314q_)!@kg\213\260P=\020@\010e\034NY!#@\325\2319,&\253&@\36083d\266\206\024@\004\341B\3222\000\362?\210\223\2219\352\216 @=\371\354gN\334(@\324\013\030\006\'\274\037@m:\220bq\352\"@\204\302B\333\241\002!@\356\260\000\333\376i\024@\376\342\320]=\030\"@J\306Z\021o\2135@\356\255\016\241\306n\021@wG\177\225g\003\030@|6\037\225j`\t@\217\330h\345\320+\"@fSK\306s\234\'@9\004\267\203K4*@\005\251~\037\272\360\035@nHiW\235b\'@\324]\324L\311\322\343?:\214\356\305\274\273\r@\022\004\033\031\334y)@\243\204\354\376\251v @J9g]\006\033!@\251O\303\316L\341!@\244\301c\373mC\"@\r\022\313\373r\r)@\t\237\212to\366!@yr{\271\267\200#@\004a\300\365\325+$@\3139\210\010\305\253\017@\372~\007\222\271\302&@\265\323b2M\365\036@\007\017p\224\376\037!@\027RC\360\3770\332?\320\244$V\014\254%@\010\277\334@\344%\'@q\354\234\020\201%!@\260\277k\036\'\225\"@A\363\302h\031\013\000@\276\'\215\323;\333\025@\303F\301\242\016c @\263\211p\354\t\315\326?(X\305\026\340\273\037@\321\323\231\336r\245!@r\320\237\342\252\355\032@}\000\224\267\n\353\'@\230\350\226\227\250\255#@\352\356\036\306\302C#@(~J\235\031EA@T\014F\333\347\351+@\252\236CN\234\322\035@z]u\323\034\311%@L\357n\247\245\274.@\250\013\302&|\210\'@\006\223R8\321\025!@\365\316\371\r9\t#@\t!{\030\265\217 @\240\343\335p\243o$@\201\235\264\323\203\206\'@\242u;\230\240>\"@T\237K;\254q\026@\234\364c8C )@\206m0y\250\3250@\331^\371\226\263\353\031@\234\3656\361fi\017@mE\017:\360\375\'@\272\340g\267\361\370&@\030\357\205\321\305\203&@^\367\024\010T\002\356?\340\263\214\014&\351\347?\343n\006;\242o @\307\274\257FMv\372?\320\264\260\346\201\332 @\350\035\026\206\242\262\347?\031tw\332p\371\366?i\271\001\331\312\265(@W\207\372b\2218\023@\312\262\346\033_\350\335?\260\316\255\347\326;,@\375\020\026s\342\303!@^W\202{T\226&@N\021\316\021s #@\242\351$\017\317]\"@x?{\351~h\"@\032@F\340\022\265\032@\016\202\257d\236\023&@\332A\241u\277\226$@\024\340\201\"\222\202$@\253\354\3340\341&4@\0061\242}D\360 @\270\325\331\264E\n\"@\037\250{\346\252\022\036@%\007h2NE&@\245eI%\341Q!@\027\323\000i\365\361\034@2\271I\363d\342$@\366\263\203\nA\210 @Q\274-\005b_.@\1773\311y\023\372\022@v\371\321\316;= @O\371\204\252\240\3249@\277\325[\177\"%%@\246\220\252t\027\033\352?X\364w\204\r\036(@p\002\253\241\017)\036@f\327 @D\0011@ \300\267#{,\034@\016`W\264\265\031\036@\237S\nf\276\204!@j^\311\346\216l\377?F\032\017\310\273b#@\301@\010\257\372\241%@)\027\007\360F\017\037@\2160\230\001_\266)@Z\\\353\244!\021)@\212\222\031:9\017\025@\004chhH,\024@\240\252\276\312\014\007&@JT\373\266X\3415@\331\331\324\234c\364\014@\232>,\265\215\t!@\225E\2433\027\t,@\004\026\310\005\312\242%@j5\267Q\203\325\"@1}\005\"\361f\370?X\2232\237/\032\371?k\313\365\300\013J\"@\333\026#\032\366\036\301?\027Dj\373\323\237*@\014\376\315w/\307#@M\243\364Eu\372 @q[`1\030\t\033@\347\240\375\250\203\345\335\277)\'\332UH+3@\252\322\244\201\020\304\023@\221\362QN\315\364$@\344^\211\325Y\204(@\332\310\022)\017\035)@+\266\242\375\252l\030@\246$N\233/p(@%AC\365\222}\036@%\030\321\355ZC\035@\321\363\033\344\375C&@u\277ER\313\311\316?\013g3^%E$@V\223\325\344\221\276\024@\244\376\245\005b\341!@?y_b\032\270\034@1\013\265\362\007\351\001@\332\223\033\240\217s$@\272D\251H{\277\314\277\001\336\237\336\316\254%@y\317`\327\037\306\347?\n\376c\223\217\360\022@\252\354\242\205W\204,@Y#\205)\377\233\036@\025\'\214\240\020=\020@\200\324G\\\327:%@\213\346)\364\277\305\017@B\274\016\322\334A\026@y\024|\r\240\003\'@\332&\347T\312$\362?.\240\311^\354~\361\277\301Pnx\315\r\330\277\377\342Q\336R\014\033@8\276h\"{\313!@\322\342\274\232dC\036@*\nY\265\"W @\350@v\341~%\037@\270\370F:$\243\035@|!\034g^} @\242\364s\2557\344\021@R\350\243)\216S+@_\025\034\034\364\n/@\313\033\360\221~[!@\3219Va\347\373\035@6R\356\3628\243\"@7 [\371\331\320-@\321O\311\035\\\244\"@m\272\2330,\211#@\251O\356N\251\024&@\326\276A\372t\034\330\277+T\263\336\332\273\'@1\237]\322\331\000\t@\370\322\251eJ\231\034@\262\000\262\177\272\016\"@\262\341t\210;Z#@\303\332\326\036\017P%@\371\3430w\261\0344@v\032Z~\217\343\007@\301\225\216g\007B!@N\027\350.\027\352\030@\312\276h\345\027\273\347?\377\022D\037$\356+@e\235\371\356\271\310\034@X\032\370Q\rc\'@\010\324\264\356\223\231$@J\231q\246K\371!@\254\310qr\202H\027@F\330\350\203\002\030\025@M8\301%j\332 @N\234\232\323~\304*@\037\351\333\233B\2015@\364a\031\302\001\020\035@\253L\313$\3674 @\361\272\300\335@2$@\203_{J\364\312\020@\306)\230\003\315\035\"@\014c\342\301\334G\'@\027\375a~\200\313\260\277\243\255\335\205\314\324\034@\230\206\334j\250]\010@%\326\313\267\212\344\036@\214$\007\ry\3161@\023\035\234d\270\024#@E\267.\232m-\034@\020{\200r\004>\036@7\252\037\020\362\316\034@\225\261\215\267\026O\353?\360H\243\237\374\301\033@)+\215e\350b\031@5L\031\252\365%\004@@\365\223Z\275!\002@\031\272\327\036\375w!@T\260\230\241\2119\031@\345x\361\275@:\030@\223,\004\222\340\006\031@[\\4{\330\261\035@\336\370\301\226\252l$@\244g\207\263\263d\014@(\315\356\342`\331\'@\031\303b\365\303;0@\016\240\320\314B\230\035@+\244\3622g\205\"@\016=\224.\036\0161@\003\365G\307\276[\"@\336}#\364\022A$@\367\235\214\025(\260#@d\002\237\233\r\207;@w}\254\001\306\002$@:\000$\3130,#@\343\222\326$\347V\"@\2615|\207\262\322\006@\351Wz:E\330\"@*m*\270C$#@\202\020!\222GH\023@UB\010\254B\325 @r\242\014>\225#\023@<f$k\2423-@!\344\371b\250\021 @\341\235\242A\017\313\035@\007r\341$\363\t\"@&\230\336\274@\n-@\317\206\013_\260&\036@\233\216\332\246s\353 @\246\3166F\321n\033@\277\034\333\n\030\337\030@\253\265j\266v=(@I\366p\030\270\367\033@)R\253\371;\363\"@\301X\356\353\021} @\317\371\301\252\216\227!@\371\36673\275V\035@#\343\254\343S\373%@H\212\206\224\270\037\032@\246\372\347\314\352\0210@*\001\006\211\272a\021@U\204@\323\267\243\'@\316\'\026\353`\222\036@\205\300\241\"\024\004(@i\030\004w\0342%@\334\2377\207\376\352\030@\037\264\005!\254\310\036@\316n\353v\017\325%@\254\342\251!S\241 @\331\310\2076\206z\022@N\370\235\r\226/,@z\035d\236\0042\033@,q\342\200\235\350\332\277R\027\320\333=\030\026@6XYW\334\352\031@y0\265\347*\370\'@\340\332\005Z\354\344\"@\236\026\223i\372\223+@\230\030\313\364K<$@\315\nY\236\206\356\362?\374\024l\310\344u\020@\246\242\372\314.\301\035@[\\gl}\034 @\350\360\260S#\017\026@wu\\\307\227\312,@\272\210\037\376\302\032 @e\256%G\256\273.@<\333\2437\334\355%@]\256\004\246aY\007@\206\346\303~\022\261\005@m\236\350\217p\031\033@z\212\325L\342! @\224\334\376\350\335 \'@\351(N\210\225\212\035@\245\231\240\346\341M\312?\311\356\033\302\245\3042@R\200(\2301\2443@\204\266\210g\212(\022@\227\244`\375\007\327\366?\200\227&`\314\274#@F\360\032O_\0060@\303)\277\201\323\177 @\211W\207\023\000\376\036@\355\377\007K\201\020\026@b \247f\021w\023@\006 \336\010\305\301 @&?.\346\361\020\377?\366\270\341\n7\003 @dKuRv*\375?d\233\337&_\336 @\341\272\222\177\216\307!@\342\256O\032\031\343\027@&\261\336\207\007\227\033@\256\316\367t\361\206\'@f\237Z\214\240\302\031@\233/\202\010i\312&@VTF!\236\004\005@Rs.\317\307\\\001@\313I\346`OR!@Xc\304\226\0023 @\325\206\324\376\030J\035@_\316\377\272\271}\007@\232\334\234\010\352\361\033@\336\371\340\335\023\214 @4\311\237\332\246\377\036@\215|Y8\033\013\026@Z\224\300\203\362\002\036@V\351cH\222u\023@g(\356x\223\273\002@\353\036\377#\330z\035@\3175\\|\273\235\"@FN\214P_+\037@\222\372_l)\303\034@RJ8\217\353\244\001\3009\022L[zp!@\235V]\311\206p)@\256\246\004\'O\240!@\367\320\304\217\277] @\347\005\313\035\245\022\030@\200\353/`n8-@{\001\254D\217\344\036@\211\251_\257\321\2578@\024x\006\2215\230$@+\211\361<\346#\035@\243\367|\203\345\2602@jC\356\267\260\353(@\340e\n\306V\352\002@\244\371\010\241(A\035@\376\274Z\002\261\234!@\025\026?:3E%@\300\263B3}\366\017@?a?zy\342&@\354\025\033\225\311\260\035@\361v\0256)~!@B\3602\24286$@tN\310\333\005\353\014@\003\224\247(n\321+@Ow\340\224\240\254\004@\007]l\241\376\375\027@$\315\202\375\225A&@1\353NB\254\230\033@\335\n.D\361Z\035@[\370M\243\301\362.@\372\3005G\273\243\035@\353\330\357&K\3139@\341%\027\347\230\203\023@6NEU\014J\016@%>hW\320A\031@\206K\226\254\355\354$@?\323\"\r4\262$@L\365\033(\033;\007@\356A\347\271\256W$@\332\212o\273\337\367\354?\020\300^El,\023@R\027\204M\370\2300@f\3365\336\331\353\372?\264N\333\rB\367\030@)jz\232\335\3565@\005\3428\232j\212\037@\277\230\201X\243\007\370\277\204a\341\240\224\227&@\231\332\277\243\247\333\t@\206\001\275\003K\210\025@\032\0021\035\373\350\342\277i(\021\210\247\264\371?]\227\027\351\020A\027@nA\245\000\007\023)@\345\222\221P\206Y @\214\227v\203\313-0@~\251\341S\347X2@\270\270\276\366i\n(@\323\363\217:\021\375/@\342\216\375M\244\265$@Y3~V\243\343!@W\227X\273\033H!@)u}\252\0003\037@\347\242z\233\231w @0\264\276q\347\306&@\354Z\006\2223\016!@6F\200\rgT\033@\231#Y\367\367<\"@\037Ec\016\376\201)@\365\213+\221\270E%@\003Q\203\2534\240%@1\370,\266\346*\016@s\235\210v\374\n*@\242\204\345D\305X\027@yB\n\371\373\214\014@\305\221\365>\317#\036@\230;L^\021\020.@w\241\230@:\346%@\021+\227\0361>\026@p\227\014\346\000P\033@\2270\201\370L\316\034@\371\230\325\\\352\353#@H\260\362}\321_\024@\374\263\177\233Nq\t@\335\3470\023\320r!@\363;\\\221\351\347\034@>\342\3679\265?#@f\201\215#\212K\"@\334a\251\264\0311\032@\331}v\251\331\203\014@`\330U\331[\026\037@b!\320\037\356\245!@\270\245\214\272\001\217!@\231\007\251\016\313\374\345?\036\263\017YtG!@h\215NQ\206y\"@\247\201\361\234\305\362\035@\277l\022\356[\006$@F\357^2\261\214\"@\276\246\346\366\273Q-@\362\243\257Zx\264+@\001\313c0\363\375/@\001h\224.\375}\037@\214\275Y{\206\2340@$\363\232\347 \260#@\311-\030\"\310\365%@\277\220@I\242g\037@\"\245\251\003\370A\032@qo~\303D\357+@\341\001\332`%j @G\263c7\364\253\035@W_\372\352\354\3710@\265\242r\270\373\343$@\204L<\344\211\203\031@Ho/\236~\030\"@\3628\247\272\311\262!@\331\275\354\t\330\2637@\255\\\313\013\200\216\005@n\230Wd*\373$@\327\001k0h\326,@\202!\345\006\307\233%@\000\331\322@\1773&@\177[f\307\374R$@[\277\177D*\276\033@K\350\027\355=?#@\005\217\251\232\244\256,@\252\263\377\246\034\324\037@\303bX\356\232\260\036@\245\204\nU\004\264\020@B=\277 \320\256+@\026+VL&\333#@\010\321\345\303o\025\024@\276T/i\323\327\026@\216N\276\"\275\025 @\306\333k\275\266\265$@\311\2112\370T\014\"@\3735\037\370\224\263\310\277\034\003x,2\321(@^\365Z\262%I\327\277\"6~\377\353\264!@\271p%\335\304\304\005@\2703\372nF\231(@\014\000b\006\273a\016@L\366#\323\016\340!@\353ER\252\373\014\030@<y\005`\013m(@\306E\263\207\375\220!@\336\337\316\365\345\227\025@\267G-\234\275\376&@U\036\211\t\375\026#@(\325\224\035H\032\r@\373\245M\356\332\0370@\352\033\2641X\246!@\357\036\342\027E\376!@\016\005\001l\037n\037@Js3\365\035^&@ytD:\023\233\033@\253\000\332\264$\254\010@#\177\216a\336[\336\277\000T\365\033\273X\037@(E\034\314\325H\354\277\374\002\301\266Z^\026@@\034=\341\23180@\315F\337\213\314\277$@\0354`5;+)@M\311\225!^\370\"@\211\225\tsF\264\022@\210&\263\356\335\204(@\312v\031Y\215R#@\007\021{1,\345!@0\"z\347\212\265$@\'\030}\356\314\342\031@\036\320gzh\265%@XO1\367^\n\035@j\303$\006\310\231#@\315S\263\215\2238\036@y\300\322\177*0\002@\217\213#<\305]\024@\221\242Y\317\314\370\010@\275\216\320\200\216?\007@P\270\271Y\005a\036@\234/z\227 \301%@\200\214\375\210\006\267\031@\347\374+c\367Z\024@XC\034\312\324\311*@\302\322[d\204`\"@G\\&\341Gt @v:N\331\002\351$@\227\266d\307\331\307 @b\rz\343b\216*@&\177\2038\007:\016@q\317\033p[\266\033@a\332\315\022\270+\027@V\321\243\322\035N%@\236Y\330\364\034\002$@\236\273/\367a\256\374?\026g\036V>\177\336?\256\343%#Z\307\355?mB\345UY0\023@\245\344\273\345\001\242\037@\214\025\363{\264\275$@\364<\321\330\013\347\034@\371\221\256\333\230%\326\277L31\3532\267\037@\376\032\234\312\232\311$@\242\343\325\377Z\332\r@\331\026\177\212\314 \001@\335\235\020\225\241\277+@?Y\357?Kr-@\337\230=\2074\223\023@a\356\346\353*S*@\306.=\331N\320 @\237\312\374\262\2323#@\216f%\340\351\031\"@]\020}\266\217\346\035@Z\"\032TP\250\030@\020\245\300y\246\000\024@\311`4G0\213\016@\365\321o\200\025\003\025@\334\373G\353\027(\034@\231m\317u\337\200\026@]&ydb\347\036@u\204>\036\033c)@V\316\305|\314\231%@Z\342\037\273\255\234#@\3710\307g\274\375\"@\311\354TBu\372\035@\033\206\326]\265\317\000@\007\234\223\201}\270\022@\220\252\254\301\211\241\t@\031th\257CF#@YgGm\214\344\026@}4\203\225\226\373.@Z\342\347\020O\344\033@\\\3404u\005z+@v\232\305\276v\016\037@\331S)x5\'!@\217\323\313\200\227\215\027@\275\365\253Jl\\\020@\340\000\n`\220w$@7}\013%r/\031@\321\267D\257\270r\032@\004 j\262\261 +@a\331*\223\252\025\037@\232nD\275\001\360%@)\332\374\217\2616\037@\311\332X\351\3532\031@\305\027\263F\271\233\354?\264\357\243} \r%@Oo\007i\024(#@#D\212\345\274,#@\321\340\247\213\303\315!@\000\311\225\366\335\367\017@T\214\230~.\313%@\3371~\022\206\022)@\367\225\346\332@\3260@\014\321:\r\305e(@.\244\252\246w\322\"@\3749\370\316\327H\245\277\277AU.O\213\035@\305\212\\h\225\316\037@\345f\023\273\021=&@\207[\277\022\250\305#@\376q\014\022\354n0@\031\312&LZB#@[\312\265E\362\374#@\033\026J\366m\367!@L\377\016\034\002\367&@\315f\323\346?\301\014@pmv\336\245\034\002@=\006\204\006\375\345\034@\213\256\316\333\037h\024@\'r\034\323n\241%@\363\3603h\307M\030@\367\246h3\356\210\022@\372A\237\300\"\264&@H\365=\355gJ\024@!,\031\266\034 $@\271\200X\265\362\000#@\223\321ft\276^\023@\226L{n\224Y\030@\250\314\346\324B\331\'@\273C\336\000\240\375\032@\356\010\247\005/\0162@\262K3a$\007+@\223\213\265\3502\237&@.\346\245j\324^,@\023\275\262)\\4\"@\371P#\246\244\302\034@\302\021\261|\356\311#@\327#\242\322g\347\033@\033A\256\3752B @d\tu\325_\376 